{"darwin": 11534, "governing": 8677, "luc": 12776, "caravan": 17184, "##ditional": 27064, "resembles": 12950, "spilling": 18054, "##bular": 28808, "highs": 26836, "##vers": 14028, "finn": 9303, "##uil": 19231, "broker": 20138, "editors": 10195, "96": 5986, "[unused920]": 925, "\u2206": 1594, "amanda": 8282, "kw": 6448, "roll": 4897, "conquered": 11438, "##zzling": 20838, "licensing": 13202, "birthday": 5798, "[unused12]": 13, "fall": 2991, "headed": 3753, "dish": 9841, "##lon": 7811, "##ovsky": 21983, "amazement": 21606, "yellowstone": 29231, "appreciation": 12284, "booker": 16674, "1663": 29016, "mansfield": 15352, "skeletons": 24365, "rte": 20375, "[unused11]": 12, "rodgers": 15652, "the": 1996, "##uising": 28580, "##atal": 27815, "kathryn": 20484, "172": 18253, "##phic": 17926, "[unused557]": 562, "[unused750]": 755, "##can": 9336, "accidents": 13436, "cartoon": 9476, "competition": 2971, "crude": 13587, "##ragan": 28905, "dominant": 7444, "interface": 8278, "##lite": 22779, "josephine": 16117, "missionaries": 11743, "clean": 4550, "##ddin": 18277, "##mmel": 29033, "pony": 15606, "ripe": 22503, "als": 25520, "smarter": 25670, "cpc": 28569, "dark": 2601, "sardinia": 21594, "##ented": 14088, "ave": 13642, "distillery": 24870, "viz": 26619, "\u5e1d": 1838, "cycles": 12709, "sul": 21396, "armchair": 29372, "measured": 7594, "childhood": 5593, "becomes": 4150, "monopoly": 15404, "however": 2174, "##dev": 24844, "peppers": 23582, "relic": 24933, "porcelain": 17767, "stats": 26319, "sufficient": 7182, "##holder": 14528, "moody": 14434, "serena": 14419, "availability": 11343, "examinations": 14912, "kristina": 28802, "magazine": 2932, "sylvia": 13378, "drained": 11055, "biscuits": 27529, "##mori": 24610, "executive": 3237, "nomadic": 21702, "vase": 18781, "clues": 15774, "risks": 10831, "\u548c": 1796, "bowed": 11489, "clifford": 13894, "demanding": 9694, "rna": 12987, "##shin": 17426, "deemed": 8357, "##ruff": 26919, "fen": 21713, "##imated": 20592, "feet": 2519, "lima": 12967, "patients": 5022, "softball": 12585, "##\u02b0": 29706, "interior": 4592, "ellington": 21630, "carpathian": 26349, "holm": 28925, "##hun": 17157, "##\u03c2": 19579, "fixing": 15887, "she": 2016, "additionally": 5678, "##chfield": 22693, "lenses": 15072, "uses": 3594, "gu": 19739, "survey": 5002, "[unused341]": 346, "##rank": 26763, "chicken": 7975, "[unused868]": 873, "relentless": 21660, "december": 2285, "sneakers": 28130, "fathers": 11397, "##mel": 10199, "extended": 3668, "t": 1056, "exaggerated": 16903, "greeting": 14806, "kilda": 22633, "instantly": 6880, "scarred": 21985, "version": 2544, "##try": 11129, "[unused908]": 913, "##odon": 28716, "##isson": 24077, "medial": 23828, "21st": 7398, "##\u207b": 30079, "fear": 3571, "reconnaissance": 8967, "ghanaian": 27202, "[unused211]": 216, "adaptation": 6789, "paddle": 20890, "denying": 16039, "breaking": 4911, "mothers": 10756, "prisoners": 5895, "legitimate": 11476, "clone": 17598, "neighborhood": 5101, "[unused912]": 917, "wight": 20945, "##hism": 23108, "##nington": 23155, "europa": 12124, "expenditure": 20700, "idol": 10282, "trauma": 12603, "communism": 15523, "barnett": 20073, "refused": 4188, "passionate": 13459, "marking": 10060, "gentry": 20262, "badges": 23433, "[unused963]": 968, "acids": 12737, "turning": 3810, "##\u307e": 30203, "commit": 10797, "breakfast": 6350, "##mma": 14760, "aback": 26575, "bohemian": 18063, "health": 2740, "communists": 13009, "mermaid": 22322, "&": 1004, "ponytail": 18865, "starters": 29400, "applicable": 12711, "plantation": 10065, "\u03c3": 1173, "realised": 11323, "pickup": 15373, "survive": 5788, "pluto": 26930, "offers": 4107, "bogota": 21240, "traveller": 21916, "soared": 29127, "unbroken": 29505, "relation": 7189, "algorithms": 13792, "\u308a": 1686, "##achi": 21046, "celebrated": 6334, "appropriated": 29223, "\u91ce": 1963, "dominated": 6817, "clarify": 25037, "alongside": 4077, "swirl": 28693, "republic": 3072, "[unused644]": 649, "montreal": 5548, "##ie": 2666, "precautions": 29361, "reinstated": 18671, "spit": 13183, "##saka": 29289, "wta": 21925, "\u057a": 1233, "stair": 23788, "##\u10db": 29984, "##tute": 24518, "receiver": 8393, "achievements": 10106, "vikram": 29063, "thing": 2518, "##my": 8029, "[unused655]": 660, "colorado": 5169, "##pas": 19707, "comply": 14037, "weather": 4633, "##rative": 18514, "chico": 22136, "##gny": 19393, "consoles": 22659, "##ctic": 13306, "##ssen": 14416, "lover": 7089, "carpenter": 10533, "meadows": 13524, "turf": 14585, "\u0640": 1290, "celebrates": 21566, "faint": 8143, "darby": 25844, "nils": 27282, "##ration": 8156, "land": 2455, "##shah": 25611, "##num": 19172, "motor": 5013, "^": 1034, "narayan": 24331, "licked": 11181, "\u53f2": 1790, "##cina": 28748, "passageway": 27336, "##iens": 24836, "jia": 25871, "regimes": 25228, "wrist": 7223, "[unused512]": 517, "papua": 13049, "tone": 4309, "##ouse": 15441, "233": 22115, "respondents": 25094, "knowing": 4209, "happier": 19366, "165": 13913, "liquor": 13207, "medicinal": 20632, "clockwise": 22839, "heir": 8215, "amnesty": 16154, "helpless": 13346, "##rring": 18807, "alloy": 17564, "oregon": 5392, "willow": 11940, "nam": 15125, "javier": 13824, "preston": 8475, "protestant": 8330, "muscled": 24909, "grassroots": 23299, "durga": 28746, "##zd": 26494, "hutton": 20408, "initiating": 26616, "##itaire": 29422, "##iny": 24300, "##dha": 17516, "crashing": 12894, "holders": 13304, "astro": 28625, "frowning": 14587, "interviewing": 27805, "##gonal": 20028, "kiran": 22403, "salazar": 25315, "membership": 5779, "quota": 20563, "1951": 4131, "increasingly": 6233, "protein": 5250, "upbeat": 27999, "1612": 29186, "##\u5b97": 30347, "faithful": 11633, "bracelet": 19688, "ranch": 8086, "vocabulary": 16188, "##sa": 3736, "##iferous": 23930, "demographics": 28321, "muscular": 13472, "##uin": 20023, "number": 2193, "##ius": 4173, "aegean": 27198, "airmen": 29437, "boots": 6879, "distress": 12893, "mit": 10210, "##stra\u00dfe": 24967, "\u067e": 1302, "interview": 4357, "brow": 8306, "ports": 8831, "##vara": 24516, "\u2013": 1516, "[unused618]": 623, "##\u0bae": 29925, "parade": 7700, "edmond": 21773, "gettysburg": 22577, "traces": 10279, "keating": 25865, "##eving": 23559, "1940s": 7675, "throne": 6106, "##oku": 21940, "##\u0f51": 29964, "balance": 5703, "determine": 5646, "impression": 8605, "pegasus": 26606, "##va": 3567, "caught": 3236, "phrase": 7655, "pulpit": 23134, "thanking": 28638, "tulane": 27437, "flown": 10583, "trivial": 20610, "hugo": 9395, "ethnicity": 18240, "heats": 18559, "viral": 13434, "alcoholism": 25519, "commentary": 8570, "ives": 23945, "brother": 2567, "jericho": 17309, "##\u1da0": 30047, "transplant": 22291, "dried": 9550, "jungle": 8894, "panicked": 16035, "setup": 16437, "equestrian": 19191, "accessible": 7801, "vaguely": 15221, "mongolia": 13906, "##\u0638": 29829, "mate": 6775, "##vao": 24682, "champions": 3966, "briefing": 27918, "rehabilitation": 11252, "bruno": 10391, "[unused932]": 937, "similar": 2714, "smoked": 20482, "900": 7706, "respected": 9768, "princes": 12000, "4a": 26424, "##anga": 18222, "domination": 17882, "##imum": 28591, "cadillac": 20425, "thrust": 7400, "destroys": 20735, "rainbow": 10098, "alternately": 23554, "jen": 15419, "##gh": 5603, "crystalline": 24628, "uneasy": 15491, "##\u6c34": 30419, "##gga": 23033, "ransom": 16540, "blinded": 20641, "portrayal": 13954, "term": 2744, "younger": 3920, "swelled": 21851, "officially": 3985, "##\u0435\u0432\u0438\u0447": 22646, "exhibitions": 8596, "gathering": 7215, "purposes": 5682, "sandals": 24617, "##lus": 7393, "blankets": 15019, "partners": 5826, "##rz": 15378, "1000": 6694, "aztec": 25245, "##pse": 29251, "caine": 19881, "##eger": 26320, "bernie": 15941, "sawmill": 24744, "shipment": 22613, "##tream": 25379, "##alia": 22786, "collaborators": 21315, "conde": 24707, "develops": 11791, "donetsk": 29151, "rhapsody": 29395, "sponsorship": 12026, "reset": 25141, "ro": 20996, "[unused742]": 747, "thorns": 28408, "\u027e": 1126, "[unused965]": 970, "##iso": 19565, "##\u2076": 30075, "electoral": 6092, "##roll": 28402, "bunch": 9129, "maintained": 5224, "flanks": 23547, "sipping": 24747, "##ining": 24002, "rus": 22949, "accommodations": 26167, "sewing": 22746, "poked": 16826, "toxin": 29090, "during": 2076, "empire": 3400, "\u2075": 1539, "##iss": 14643, "mohawk": 22338, "##\u09ae": 29906, "decor": 25545, "reporter": 6398, "316": 23980, "ivo": 28346, "garland": 17017, "collections": 6407, "sicily": 12071, "engagements": 20583, "##\u090f": 29850, "[unused596]": 601, "offense": 10048, "wynn": 25328, "cereal": 20943, "##\u2605": 30147, "##edance": 29605, "##\u0f66": 29972, "indicated": 5393, "demonstration": 10467, "[unused890]": 895, "[unused97]": 98, "buccaneers": 21629, "c1": 27723, "\ufb02": 1985, "##com": 9006, "confirmation": 13964, "##\u76f8": 30445, "##cts": 16649, "encompasses": 13974, "nations": 3741, "super": 3565, "weir": 16658, "##ayton": 29319, "##gia": 10440, "##iu": 17922, "##\u10d0": 29974, "jr": 3781, "si": 9033, "##redo": 23417, "##\u3009": 30164, "admissions": 20247, "deformation": 29130, "##osta": 28696, "waterway": 23668, "##lom": 21297, "kayla": 26491, "suns": 19352, "snatched": 14177, "tandem": 18231, "sweetheart": 12074, "\u5fa1": 1847, "sami": 17015, "292": 25797, "reluctant": 11542, "platoon": 13799, "barn": 8659, "tenants": 14665, "uncle": 4470, "##cm": 27487, "blessings": 24618, "screwing": 29082, "\u00b0c": 6362, "expired": 13735, "##\u05dc": 29799, "bud": 13007, "spearheaded": 27721, "aiding": 24791, "clips": 15281, "qualifying": 6042, "ata": 29533, "track": 2650, "##kala": 26907, "cameras": 8629, "milton": 9660, "pains": 20398, "panchayat": 20079, "[unused641]": 646, "pregnancy": 10032, "talked": 5720, "2020": 12609, "khz": 17737, "sidney": 11430, "##amo": 22591, "##nstein": 15493, "##jak": 18317, "cigar": 19135, "revolutionary": 6208, "judgments": 26186, "vaughn": 18220, "hesitant": 20221, "inhaled": 15938, "holster": 29447, "jelly": 20919, "cdc": 26629, "##mis": 15630, "tierney": 26198, "macmillan": 15434, "fumbled": 20054, "\\": 1032, "\u5927": 1810, "adriatic": 23400, "##ito": 9956, "##ra\u00dfe": 27807, "harmless": 19741, "norma": 20692, "seemingly": 9428, "\u221a": 1600, "accelerated": 14613, "immortal": 12147, "thwarted": 28409, "byrne": 14928, "##tting": 13027, "marsh": 9409, "oskar": 28626, "quoted": 9339, "##lce": 23314, "\u3078": 1675, "booths": 27612, "lb": 6053, "atp": 12649, "lifespan": 26462, "drinking": 5948, "occult": 27906, "whole": 2878, "\u21a6": 1588, "specials": 19247, "fresno": 20840, "chooses": 15867, "disappointment": 10520, "jupiter": 13035, "cannot": 3685, "[unused967]": 972, "militant": 16830, "##lip": 15000, "gupta": 20512, "##hire": 20908, "clarkson": 18648, "migrating": 28636, "norwegian": 5046, "sapphire": 21965, "additional": 3176, "regression": 26237, "southeast": 4643, "1670": 26253, "exeter": 12869, "##ana": 5162, "nautical": 11339, "rick": 6174, "##gizing": 28660, "modular": 19160, "\u026a": 1119, "##der": 4063, "westchester": 25489, "kristen": 22435, "melissa": 9606, "\u6e05": 1903, "slide": 7358, "##tten": 25970, "rags": 26346, "[unused669]": 674, "symphonies": 29355, "\u2295": 1612, "counter": 4675, "guam": 16162, "neutrality": 21083, "trinity": 7124, "dinosaurs": 18148, "punch": 8595, "thirty": 4228, "consent": 9619, "brisk": 28022, "ala": 21862, "dog": 3899, "gothic": 7788, "unclear": 10599, "controls": 7711, "plush": 27729, "dared": 15048, "nationality": 10662, "reintroduced": 28263, "magnificent": 12047, "harvesting": 21534, "vocals": 2955, "yunnan": 21607, "trailer": 9117, "weird": 6881, "\u0574": 1229, "##\u0454": 29759, "analytics": 25095, "conservatory": 11879, "diane": 12082, "seduce": 23199, "banner": 9484, "perrin": 28106, "infantry": 3939, "343": 27810, "##\u1d4d": 30036, "##lty": 24228, "##iving": 14966, "##genase": 28835, "##ov": 4492, "hardware": 8051, "match": 2674, "##etic": 16530, "past": 2627, "heaven": 6014, "possessed": 8679, "137": 14989, "flawed": 25077, "##duction": 16256, "hurt": 3480, "crew": 3626, "##\u0575": 29777, "persia": 16667, "egan": 27889, "emigrated": 11367, "pa": 6643, "##und": 8630, "[unused937]": 942, "dorothea": 24052, "whom": 3183, "redesigned": 17051, "##mg": 24798, "##\u11ab": 30021, "execution": 7781, "deposited": 14140, "passport": 12293, "rei": 24964, "carriage": 9118, "ads": 14997, "dillon": 14602, "frowned": 7335, "cost": 3465, "hilarious": 26316, "##sberg": 11711, "##iting": 15402, "difficulty": 7669, "##ovich": 12303, "##rained": 27361, "mainstream": 7731, "nasser": 26099, "tilted": 9939, "[unused2]": 3, "hole": 4920, "juliette": 24696, "sf": 16420, "bosnia": 9562, "wiped": 8342, "##yo": 7677, "##cle": 14321, "##ue": 5657, "deceased": 10181, "surprises": 20096, "blackberry": 25935, "drilling": 15827, "objected": 15959, "furry": 28662, "leger": 26523, "vector": 9207, "recounts": 23412, "sloop": 24786, "trainee": 26758, "must": 2442, "##lick": 25230, "ed": 3968, "1738": 28009, "collin": 22180, "commitments": 17786, "adam": 4205, "sampling": 16227, "pier": 10356, "##\u0bc1": 29933, "garion": 12523, "sunshine": 9609, "towering": 20314, "twentieth": 9086, "panel": 5997, "khmer": 19472, "ink": 10710, "shetland": 25552, "verve": 29230, "##sia": 8464, "begun": 5625, "benito": 23595, "corey": 18132, "ap": 9706, "secondly": 16378, "\u58eb": 1807, "irritated": 15560, "liked": 4669, "##chule": 20269, "##\u2088": 30084, "morocco": 9835, "requesting": 17942, "backstroke": 28373, "guardian": 6697, "##ructured": 26134, "##iza": 21335, "pollock": 25218, "reverend": 10547, "warriors": 6424, "hound": 19598, "leagues": 8121, "thirst": 21810, "##front": 12792, "unconventional": 23693, "ecole": 12431, "shooter": 13108, "\u30bb": 1708, "larson": 21213, "\u0440": 1195, "jack": 2990, "stokes": 18716, "horned": 26808, "compass": 16681, "austrian": 6161, "charming": 11951, "dictatorship": 18944, "refuse": 10214, "##\u00b1": 29657, "emotionally": 14868, "limo": 23338, "computer": 3274, "figures": 4481, "grange": 18203, "##llis": 21711, "##lab": 20470, "##ils": 12146, "comedians": 25119, "##how": 14406, "schmidt": 12940, "xiang": 27735, "shuddered": 13937, "fantasia": 29203, "ones": 3924, "ufc": 11966, "dear": 6203, "##ntes": 17340, "work": 2147, "gallons": 18501, "landmark": 8637, "surrounded": 5129, "format": 4289, "preferences": 18394, "trojan": 23445, "\u5357": 1785, "##logist": 10727, "##rnet": 26573, "situation": 3663, "thence": 23166, "mystery": 6547, "adequately": 23613, "yard": 4220, "cricket": 4533, "[unused560]": 565, "##16": 16048, "convoy": 9549, "judas": 25326, "paradise": 9097, "liberia": 18039, "ry": 29431, "wings": 4777, "indigenous": 6284, "pat": 6986, "onion": 20949, "##\"": 29613, "elbows": 13690, "authorship": 26324, "elaine": 15263, "manufacturer": 7751, "880": 26839, "abrupt": 18772, "abs": 14689, "potassium": 18044, "volunteered": 14382, "stunned": 9860, "styles": 6782, "chesterfield": 22699, "[unused39]": 40, "curls": 14484, "accounting": 9529, "##enay": 27727, "twisting": 12814, "venerable": 24541, "larsen": 20094, "calcutta": 13419, "rani": 21617, "iso": 11163, "1742": 25704, "love": 2293, "##oese": 23379, "1883": 7257, "##ough": 10593, "brewster": 23009, "shame": 9467, "channels": 6833, "woods": 5249, "native": 3128, "[unused945]": 950, "##inho": 29344, "quarters": 7728, "repeat": 9377, "gear": 6718, "##rgh": 27172, "##ved": 7178, "glaring": 16124, "max": 4098, "uttered": 20947, "crush": 10188, "circular": 8206, "tau": 19982, "##ush": 20668, "td": 14595, "bertrand": 20586, "whereby": 13557, "constantly": 7887, "avenue": 3927, "intellect": 24823, "someone": 2619, "freiburg": 22871, "limestone": 9771, "minerva": 27383, "caress": 21753, "mature": 9677, "##form": 14192, "bmw": 13154, "splash": 17624, "discomfort": 17964, "noises": 14950, "downwards": 28457, "nay": 29349, "op": 6728, "fins": 18564, "io": 22834, "##are": 12069, "\u0251": 1110, "shang": 29382, "adherents": 25712, "auckland": 8666, "##hdi": 22960, "##\u2090": 30089, "specifically": 4919, "##ppa": 13944, "\u79cb": 1929, "curled": 8188, "formulated": 19788, "wnba": 25554, "windmill": 25367, "captivity": 16187, "periphery": 23275, "philosophical": 9569, "lavender": 20920, "terminate": 20320, "abbey": 6103, "##\u0bbf": 29932, "##aceous": 25560, "entirely": 4498, "vans": 21994, "leiden": 20329, "economical": 21791, "\u7537": 1912, "tiffany": 14381, "geneva": 9810, "petrol": 17141, "##mas": 9335, "gaul": 26522, "##eal": 15879, "padded": 20633, "projection": 13996, "##jean": 27687, "glance": 6054, "##right": 15950, "##mun": 23041, "accurately": 14125, "[unused270]": 275, "\u1d47": 1497, "410": 19151, "##hip": 5605, "ineligible": 22023, "##arts": 20591, "##sso": 24137, "affects": 13531, "expressions": 11423, "debt": 7016, "operates": 5748, "proposes": 17146, "##raj": 14220, "cliffs": 13333, "contain": 5383, "intended": 3832, "\u5834": 1806, "motorcycles": 18580, "##\u03bf\u03c5": 26789, "determination": 9128, "##\u0cbe": 29938, "reporting": 7316, "tanner": 12780, "except": 3272, "examine": 11628, "[unused365]": 370, "##emann": 17545, "owns": 8617, "attempted": 4692, "##\u116d": 30013, "fishery": 22880, "lark": 23404, "henley": 20768, "wide": 2898, "locomotives": 7830, "\u304f": 1653, "##lers": 12910, "##ntly": 20630, "might": 2453, "outbreak": 8293, "romani": 23982, "jang": 23769, "oil": 3514, "1751": 24440, "twists": 21438, "annually": 6604, "repairs": 10315, "responsibility": 5368, "capped": 13880, "poland": 3735, "manufactures": 22027, "claus": 19118, "mitochondrial": 23079, "impacted": 19209, "reduces": 13416, "wing": 3358, "##dim": 22172, "copyright": 9385, "independence": 4336, "politely": 16954, "vertically": 20018, "\u20a4": 1572, "shortlisted": 21353, "weiss": 17889, "dismissing": 28913, "morphology": 19476, "westfield": 26584, "\u2018": 1520, "oscar": 7436, "##\u116e": 30014, "distracted": 11116, "genera": 11416, "impatience": 28011, "reared": 23295, "rake": 26008, "jakarta": 14426, "bunk": 25277, "##ees": 10285, "race": 2679, "alvin": 17348, "restroom": 28249, "##space": 23058, "infrastructure": 6502, "problems": 3471, "urging": 14328, "\u0989": 1350, "ruling": 6996, "complicated": 8552, "gareth": 20243, "##cus": 7874, "stuttgart": 13022, "patrol": 6477, "reproduce": 21376, "supervise": 28589, "centimetres": 13935, "lars": 16357, "synth": 24203, "##lc": 15472, "murray": 6264, "enrique": 15769, "compensated": 29258, "\u2666": 1626, "405": 23988, "sinks": 23462, "cactus": 23265, "solvent": 23735, "own": 2219, "[unused179]": 184, "justified": 15123, "##ime": 14428, "martial": 7761, "##sten": 16173, "redundant": 21707, "##aro": 10464, "acheron": 21427, "cody": 13326, "initiative": 6349, "underground": 5230, "coca": 16787, "##ask": 19895, "##2": 2475, "nt": 23961, "sweetly": 22557, "fei": 24664, "##\u2099": 19110, "exemption": 19621, "duration": 9367, "immensely": 24256, "rev": 7065, "##dina": 18979, "helen": 6330, "##ivar": 28739, "monitors": 15410, "##ij": 28418, "enroll": 25612, "adored": 28456, "[unused117]": 122, "\u5e78": 1841, "hardship": 26479, "izzy": 16699, "ropes": 14607, "walkover": 17495, "werewolves": 18306, "##\u27e8": 30155, "yin": 18208, "##\u1d30": 30028, "53": 5187, "bp": 17531, "##yuan": 17236, "administrator": 8911, "libby": 19533, "enhanced": 9412, "prosecuted": 21651, "\u6cd5": 1901, "##dge": 11818, "##reus": 23446, "##scribe": 29234, "darkness": 4768, "##hala": 19531, "anonymous": 10812, "ligue": 18374, "rely": 11160, "nipple": 14298, "weaving": 15360, "1683": 27414, "kelsey": 21004, "feeds": 14172, "dex": 20647, "##mussen": 29134, "amara": 28599, "charlton": 17821, "neighboring": 8581, "reservation": 11079, "lecturer": 9162, "##omorphic": 28503, "added": 2794, "belfast": 10330, "answering": 10739, "hanna": 10579, "##ential": 24271, "variables": 10857, "sept": 17419, "squads": 20191, "attained": 12754, "debuts": 26740, "slashed": 23587, "solicitor": 15468, "accused": 5496, "immersion": 27013, "madly": 29179, "depressed": 14777, "millionaire": 19965, "engages": 24255, "otago": 21831, "stimulating": 27295, "meiji": 23214, "perfect": 3819, "supplies": 6067, "myspace": 24927, "##mara": 28225, "rendered": 10155, "upwards": 14873, "ants": 16111, "inc": 4297, "defendant": 13474, "isbn": 3175, "##grant": 18980, "noted": 3264, "1982": 3196, "walker": 5232, "1895": 6301, "besieged": 17923, "craig": 7010, "figuring": 23218, "segregated": 24382, "darlington": 19667, "launcher": 22742, "preserved": 6560, "quieter": 27486, "bye": 9061, "\u0923": 1322, "fairfield": 18986, "opposed": 4941, "january": 2254, "slim": 11754, "##qvist": 28705, "blindly": 25734, "##\u03bf\u03c2": 15297, "beale": 28371, "looked": 2246, "operatives": 25631, "[unused900]": 905, "unable": 4039, "woolf": 29572, "paintings": 5265, "##hore": 16892, "##alla": 25425, "concordia": 24982, "if": 2065, "rector": 10935, "##cide": 27082, "lahore": 15036, "ghost": 5745, "[unused951]": 956, "kendrick": 25341, "bertram": 27515, "antibody": 27781, "cans": 18484, "[unused497]": 502, "##ati": 10450, "marriott": 26490, "tel": 10093, "##\u6b66": 30415, "aziz": 21196, "##awa": 10830, "subjective": 20714, "##ly": 2135, "##ncies": 14767, "##rith": 24292, "encompassed": 24058, "material": 3430, "armando": 26716, "##itative": 29293, "##hausen": 13062, "flexibility": 16991, "silas": 18553, "philadelphia": 4407, "##ute": 10421, "##ux": 5602, "fair": 4189, "stubborn": 14205, "cages": 27157, "physics": 5584, "trouble": 4390, "toes": 10393, "settlers": 7322, "slides": 14816, "aperture": 18892, "loosened": 22456, "##verse": 16070, "mikey": 25998, "increasing": 4852, "nigel": 12829, "burn": 6402, "pitching": 14696, "xi": 8418, "brussels": 9371, "captain": 2952, "derek": 7256, "phillip": 10852, "[unused197]": 202, "printer": 15041, "metis": 26057, "mysteriously": 29239, "##\u6c5f": 30423, "eurasian": 23399, "bounced": 13605, "##ttering": 19567, "correctional": 20873, "destruction": 6215, "alone": 2894, "265": 20549, "##gf": 25708, "divisions": 5908, "explorers": 19264, "militia": 8396, "fortification": 23050, "bungalow": 27563, "gray": 3897, "##\u05da": 29797, "##\u6a4b": 30411, "354": 27878, "kb": 21677, "buried": 3950, "snoop": 29044, "theo": 14833, "edge": 3341, "deacon": 14845, "fragile": 13072, "##hed": 9072, "outburst": 27719, "receive": 4374, "[unused969]": 974, "##aling": 21682, "bombs": 9767, "lyndon": 23037, "valid": 9398, "connector": 19400, "ru": 21766, "shareholder": 18668, "camel": 19130, "systems": 3001, "1732": 27582, "fk": 14352, "##izes": 10057, "[unused338]": 343, "##ldon": 19932, "abilities": 7590, "\u00b4": 1084, "challenged": 8315, "pioneered": 16193, "hive": 26736, "or": 2030, "var": 13075, "uv": 23068, "##\u1106": 29995, "shirts": 11344, "cappella": 23013, "partnership": 5386, "east": 2264, "policeman": 14460, "\u0436": 1186, "##west": 19650, "basis": 3978, "##lta": 24458, "thou": 15223, "59": 5354, "invitational": 20129, "##eda": 11960, "##ffled": 28579, "##shed": 14740, "habit": 10427, "##bes": 12681, "flowers": 4870, "##ki": 3211, "susanna": 26681, "james": 2508, "ps": 8827, "teaming": 27025, "##\u2093": 30092, "connected": 4198, "safety": 3808, "##\u03b3": 29721, "serialized": 27289, "1796": 13885, "julian": 6426, "uncommon": 13191, "cure": 9526, "\u27e9": 1630, "reached": 2584, "##rzy": 28534, "192": 17613, "reissue": 17173, "rejoin": 25261, "primetime": 18474, "macy": 20914, "kidding": 12489, "cow": 11190, "physician": 7522, "olsen": 18997, "1628": 28627, "births": 18250, "humanoid": 28051, "mandir": 22700, "hooper": 23717, "pods": 26723, "##rar": 19848, "externally": 27223, "maps": 7341, "cuisine": 12846, "mace": 19382, "##mann": 5804, "speaks": 8847, "238": 22030, "[unused86]": 87, "54th": 29570, "settings": 10906, "mentally": 10597, "considering": 6195, "sahara": 19604, "quantitative": 20155, "##\u548c": 30322, "rayon": 26810, "gust": 26903, "wed": 21981, "hill": 2940, "coral": 11034, "##sat": 16846, "ensuring": 12725, "extending": 8402, "landfall": 21042, "whereupon": 26090, "zur": 17924, "shudder": 18261, "returning": 4192, "quicker": 19059, "princeton": 9173, "##\u5b50": 30342, "enthusiasm": 12024, "intra": 26721, "anthologies": 25675, "removed": 3718, "open": 2330, "##kovic": 14733, "1798": 13036, "expensive": 6450, "leader": 3003, "tunnels": 10633, "##rka": 22379, "assortment": 26285, "folding": 12745, "sanitary": 25480, "most": 2087, "[unused979]": 984, "marissa": 22767, "tin": 9543, "harden": 28751, "arrow": 8612, "##ope": 17635, "\u05d0": 1241, "1853": 8933, "\u1d62": 1507, "ravi": 16806, "worked": 2499, "flank": 12205, "clerk": 7805, "floral": 18686, "peking": 27057, "##\u10e2": 29989, "##bound": 15494, "float": 14257, "shell": 5806, "origins": 7321, "current": 2783, "\u092d": 1330, "webber": 19861, "##lster": 29576, "##ome": 8462, "arches": 13540, "herman": 11458, "\u0dcf": 1408, "romania": 6339, "caldwell": 16589, "##ota": 17287, "brant": 29182, "silvia": 27827, "yer": 20416, "warlord": 16579, "dissent": 24116, "casey": 9036, "blinking": 15997, "counted": 8897, "##dier": 24612, "placed": 2872, "telenovela": 25754, "nineteen": 11977, "protagonists": 21989, "toro": 23790, "[unused650]": 655, "bu": 20934, "thirds": 12263, "shrimp": 20130, "ballet": 7250, "purchased": 4156, "mesa": 15797, "##music": 27275, "##\uff1a": 30519, "lynn": 9399, "[unused333]": 338, "mechanically": 27846, "1730": 23272, "podcast": 16110, "carvings": 22838, "160": 8148, "grease": 21956, "exploits": 20397, "43": 4724, "[unused686]": 691, "purported": 27023, "stat": 28093, "##cta": 25572, "declined": 6430, "wages": 12678, "1955": 3982, "excitement": 8277, "francoise": 28979, "291": 27173, "wakes": 17507, "weakening": 22031, "terrified": 10215, "payton": 28666, "psalm": 22728, "varsity": 11710, "ascot": 29036, "$": 1002, "biker": 28988, "pouch": 21445, "subcontinent": 26125, "notified": 19488, "particle": 10811, "rotary": 16933, "tenure": 7470, "motel": 14901, "teatro": 16038, "voters": 7206, "##etano": 28752, "grandma": 13055, "resource": 7692, "down": 2091, "##feng": 24383, "miniseries": 13612, "##aged": 18655, "informally": 21858, "vertices": 18984, "charcoal": 18872, "operas": 14281, "refreshing": 27150, "throws": 11618, "##ah": 4430, "minds": 9273, "enables": 12939, "##sen": 5054, "cough": 19340, "ex": 4654, "##\u1166": 30009, "stability": 9211, "swimmers": 21669, "emilia": 20417, "##ford": 3877, "persisted": 19035, "27th": 15045, "momma": 23603, "prevalent": 15157, "publishing": 4640, "earthquake": 8372, "##ssi": 18719, "##ecin": 28191, "bobbed": 29579, "examples": 4973, "##uk": 6968, "tatiana": 22725, "distraction": 14836, "discovery": 5456, "presenters": 25588, "stanza": 29509, "##sto": 16033, "guadalupe": 23529, "loaf": 27048, "squat": 26783, "1697": 28690, "befriended": 23386, "##havan": 24652, "madeline": 16974, "subsp": 24807, "##ach": 6776, "##cke": 19869, "##chester": 25322, "##kat": 24498, "\u5c1a": 1830, "cambridgeshire": 24197, "##lston": 21540, "stakes": 7533, "acquiring": 13868, "def": 13366, "buchanan": 14349, "en": 4372, "ferns": 25715, "magistrate": 14351, "entrances": 18084, "recorded": 2680, "dunn": 14145, "##ae": 6679, "scriptures": 22481, "assign": 23911, "cabinets": 20053, "beside": 3875, "l": 1048, "outlawed": 29131, "aligned": 13115, "tao": 20216, "##ize": 4697, "rapidly": 5901, "##rrie": 22155, "[unused823]": 828, "designations": 26672, "martinez": 10337, "energies": 19320, "bremen": 16314, "cobb": 17176, "vibration": 17880, "psalms": 26130, "##ddling": 21814, "##urse": 28393, "blasts": 25829, "corrupt": 13593, "devised": 14917, "terrorism": 10130, "oversized": 21698, "hereford": 21136, "kernel": 16293, "[unused64]": 65, "canadiens": 21247, "cl": 18856, "furnace": 17533, "absent": 9962, "ze": 27838, "dialogue": 7982, "struggle": 5998, "##rada": 28510, "database": 7809, "provision": 9347, "\u028a": 1132, "##10": 10790, "sms": 22434, "bluegrass": 21286, "mort": 22294, "[unused137]": 142, "##hl": 7317, "amy": 6864, "terry": 6609, "##cor": 27108, "ya": 8038, "[unused204]": 209, "stumble": 21811, "rollins": 23502, "stinging": 22748, "##kou": 24861, "1801": 12410, "ordeal": 23304, "olivia": 7710, "onset": 14447, "##phila": 26083, "deserted": 12768, "logos": 25571, "utilized": 12550, "kenton": 25446, "freeing": 22198, "kuwait": 13085, "nu": 16371, "##tc": 13535, "ether": 28855, "1857": 8204, "administrative": 3831, "combatants": 26622, "id": 8909, "vertical": 7471, "episcopal": 9134, "ymca": 26866, "\u10d4": 1442, "impressed": 7622, "##mar": 7849, "##\u30b9": 30233, "dramas": 16547, "louvre": 25110, "posthumously": 12770, "sheath": 21867, "dissolve": 21969, "193": 19984, "cs": 20116, "rediscovered": 26733, "##etta": 16549, "plants": 4264, "clubs": 4184, "baja": 19497, "memories": 5758, "[unused101]": 106, "##aud": 19513, "##runner": 23195, "##kos": 15710, "##pps": 28281, "sql": 29296, "##may": 27871, "attractions": 13051, "coined": 13279, "bavaria": 11606, "pulse": 8187, "scrubbed": 27820, "calculation": 17208, "huron": 21899, "imply": 19515, "##bine": 16765, "panda": 25462, "troy": 9553, "camouflage": 21356, "li": 5622, "jumps": 14523, "aubrey": 18961, "ruby": 10090, "sudan": 10411, "odessa": 19693, "council": 2473, "stemming": 29217, "maguire": 26196, "starving": 18025, "tours": 7562, "owning": 19273, "initiated": 7531, "maintaining": 8498, "underneath": 7650, "##thorpe": 22398, "\u533a": 1782, "horatio": 27752, "##minster": 24431, "tavern": 13090, "[unused360]": 365, "182": 17691, "dominique": 18165, "beau": 17935, "alfredo": 19423, "dilemma": 21883, "limerick": 15679, "landon": 20642, "environments": 10058, "mattress": 13342, "mac": 6097, "##kawa": 13069, "ottoman": 6188, "folder": 19622, "comrades": 19033, "sailors": 11279, "bose": 21299, "colonization": 18962, "[unused442]": 447, "walks": 7365, "##lates": 26786, "murmured": 7152, "##lat": 20051, "singer": 3220, "polynomial": 17505, "negotiations": 7776, "[unused478]": 483, "##pired": 21649, "neil": 6606, "hadn": 2910, "##inger": 9912, "ramps": 24943, "graduated": 3852, "lunatic": 26594, "despised": 26626, "##aurus": 17342, "adolf": 12500, "send": 4604, "##nni": 23500, "romney": 19615, "dancers": 10487, "round": 2461, "jesuit": 13840, "joshi": 26645, "snyder": 17840, "jonas": 10680, "ny": 6396, "wolf": 4702, "##zin": 17168, "##lts": 21593, "##oid": 9314, "sadness": 12039, "339": 28977, "##\u0255": 29680, "collins": 6868, "distinguished": 5182, "induced": 10572, "vin": 19354, "creeping": 18266, "middleweight": 18741, "some": 2070, "##ering": 7999, "##uchi": 15217, "alleging": 23294, "consistent": 8335, "surprise": 4474, "##rone": 20793, "tension": 6980, "sophomore": 13758, "plea": 14865, "tipping": 25486, "acquisitions": 19530, "middle": 2690, "trent": 7990, "radioactive": 17669, "demonstrate": 10580, "##chio": 23584, "##hoff": 17896, "messy": 18307, "carla": 17081, "##wives": 23744, "community": 2451, "snatch": 23365, "asian": 4004, "assessments": 20794, "systemic": 22575, "spruce": 19893, "kant": 26044, "relations": 4262, "melting": 13721, "rann": 26312, "remodeled": 27170, "repair": 7192, "feeder": 21429, "##personal": 28823, "##sam": 21559, "nominees": 17853, "simply": 3432, "weak": 5410, "##founded": 21001, "eddy": 16645, "me": 2033, "48th": 27787, "namesake": 17283, "incense": 28647, "vi": 6819, "##\u203f": 30069, "[unused731]": 736, "turks": 12896, "record": 2501, "##ann": 11639, "electronics": 8139, "hatch": 11300, "##aday": 28039, "taiwanese": 16539, "drafts": 28967, "\u09ac": 1368, "lie": 4682, "mornings": 16956, "manitoba": 10512, "madras": 12993, "openly": 10132, "werner": 14121, "baden": 12189, "latest": 6745, "maverick": 27187, "breast": 7388, "##ten": 6528, "aspects": 5919, "nwa": 15737, "leverage": 21155, "\u09a7": 1365, "##shan": 9688, "wilkes": 20635, "commented": 7034, "pup": 26781, "technology": 2974, "iq": 26264, "stationary": 17337, "vulnerability": 18130, "##ffle": 18142, "celestial": 17617, "known": 2124, "monitor": 8080, "sustainability": 15169, "grape": 14722, "portals": 27388, "oval": 9242, "siberian": 21822, "jogged": 27812, "bread": 7852, "winners": 4791, "##some": 14045, "dunne": 26553, "70": 3963, "ito": 23333, "somebody": 8307, "lucius": 15639, "references": 7604, "dalton": 12413, "fitzroy": 21870, "##zhi": 19436, "marriages": 12743, "reiterated": 28960, "##crat": 23185, "[unused325]": 330, "commercially": 11088, "discontinued": 8944, "thinks": 6732, "ss": 7020, "##bia": 11607, "1958": 3845, "tablet": 13855, "snowfall": 26043, "felony": 24648, "##tering": 17989, "##nism": 28113, "1805": 13126, "hilltop": 25566, "odi": 21045, "towels": 24213, "whitaker": 27049, "iranian": 7726, "distressed": 24305, "medications": 20992, "87": 6584, "behalf": 6852, "cavern": 16679, "centred": 16441, "confidential": 18777, "mounted": 5614, "transferred": 4015, "\u110f": 1466, "dimensions": 9646, "1645": 26081, "kwan": 27741, "eased": 10987, "1876": 7326, "inflation": 14200, "regulation": 7816, "marry": 5914, "rippled": 26862, "ska": 24053, "##rogate": 21799, "walkway": 19467, "pizza": 10733, "##tour": 21163, "##tner": 18885, "negatively": 19762, "##\u0925": 29860, "contrary": 10043, "hilary": 22744, "ivanov": 26333, "\u0111": 1102, "chronological": 23472, "##hei": 26036, "##ening": 7406, "maddy": 20789, "shifted": 5429, "bouts": 23666, "colby": 18650, "##\u0d9a": 29939, "did": 2106, "infamous": 14429, "joking": 16644, "pastor": 9220, "\u5b87": 1819, "personal": 3167, "prophecy": 14951, "angrily": 14136, "alonso": 17649, "hammersmith": 28420, "ironic": 19313, "##\u90fd": 30487, "sovereignty": 12601, "axial": 26819, "le": 3393, "restrain": 28467, "nursing": 8329, "elephant": 10777, "given": 2445, "ride": 4536, "1747": 24522, "##ttes": 14581, "collar": 9127, "guidance": 8606, "##vik": 13309, "m1": 23290, "##vera": 26061, "\u6b63": 1888, "baggage": 20220, "shortly": 3859, "abc": 5925, "notification": 26828, "hydra": 26018, "##ins": 7076, "critics": 4401, "lionel": 14377, "cracking": 15729, "swimming": 5742, "hove": 25215, "knighted": 19572, "nation": 3842, "sargent": 27599, "within": 2306, "deputy": 4112, "remain": 3961, "\u300a": 1639, "kellogg": 26129, "##herton": 27949, "competent": 17824, "dude": 12043, "seduction": 26962, "catalan": 13973, "##foil": 24323, "luther": 9678, "denounced": 17787, "straighten": 28568, "cretaceous": 18122, "liege": 17766, "funky": 24151, "##bee": 11306, "##mins": 21266, "privately": 9139, "##\u0985": 29883, "[unused18]": 19, "clutch": 15357, "section": 2930, "tomas": 12675, "painter": 5276, "daisy": 10409, "##ni": 3490, "hart": 7530, "raiding": 23530, "##\u52a0": 30305, "[unused974]": 979, "##posed": 19155, "clause": 11075, "spoil": 27594, "braced": 15515, "flagship": 10565, "remix": 6136, "providers": 11670, "seminar": 18014, "evident": 10358, "welfare": 7574, "morally": 28980, "##\u043d": 18947, "##\u5dde": 30362, "preach": 25250, "fia": 19807, "milky": 21582, "crept": 13147, "/": 1013, "granting": 15080, "##formed": 29021, "gazes": 23514, "##icz": 18682, "nelly": 29498, "##aghan": 26685, "##ulating": 10924, "[unused598]": 603, "taller": 12283, "##vite": 25217, "knew": 2354, "prosecutor": 12478, "expectations": 10908, "nudged": 18666, "\u5fc4": 1850, "##uting": 20807, "threw": 4711, "##lton": 13947, "worcester": 12539, "1974": 3326, "espana": 20678, "##osed": 24768, "[unused440]": 445, "kei": 26679, "squares": 14320, "##phone": 9864, "swans": 26699, "##bles": 13510, "##teacher": 24741, "serious": 3809, "diversified": 24908, "shrines": 22562, "\u0631": 1280, "emerge": 12636, "##cliffe": 18115, "gorgeous": 9882, "problematic": 18636, "wildlife": 6870, "##ion": 3258, "processes": 6194, "dealers": 16743, "aided": 11553, "fingertips": 12206, "blood": 2668, "##\u0936": 29872, "sucker": 26476, "##izer": 17629, "cousin": 5542, "leah": 14188, "##mura": 16069, "usa": 3915, "writ": 25697, "police": 2610, "whether": 3251, "curling": 11599, "beasts": 15109, "gallon": 25234, "##ctable": 23576, "##\u043c": 29745, "suzanne": 15146, "sculpture": 6743, "##wu": 16050, "fencing": 15962, "\u00fe": 1101, "suggestions": 15690, "clasped": 16763, "refrain": 20703, "triggering": 29170, "reaching": 4285, "greco": 18180, "least": 2560, "disabilities": 13597, "##jected": 24455, "raw": 6315, "##cuting": 29163, "procedure": 7709, "##nging": 22373, "\u0bb2": 1392, "##jured": 26949, "##plex": 19386, "158": 17696, "aged": 4793, "errors": 10697, "vince": 12159, "bats": 12236, "crooked": 15274, "ducked": 13781, "handing": 13041, "##\u6cd5": 30427, "unnatural": 21242, "fae": 17282, "batman": 8942, "trades": 14279, "reclamation": 27389, "grimm": 24287, "judaism": 13725, "##sack": 25607, "xander": 29019, "al": 2632, "eliza": 13234, "##\u03b8": 29725, "##\u1d40": 30031, "cyrus": 16123, "fences": 21549, "key": 3145, "bait": 17395, "admiralty": 14179, "paralympics": 15600, "members": 2372, "quay": 21048, "\u03c8": 1178, "[unused33]": 34, "converting": 16401, "tales": 7122, "##uga": 16377, "excursion": 26144, "roderick": 28326, "##aks": 29243, "plains": 8575, "dune": 21643, "tessa": 13167, "kinds": 7957, "[unused955]": 960, "management": 2968, "willingness": 19732, "1800s": 19878, "advancement": 12607, "cell": 3526, "baby": 3336, "insulted": 23637, "dyed": 28432, "##bek": 24597, "teammate": 10809, "fooled": 25857, "##dhar": 25632, "##free": 23301, "captured": 4110, "michele": 15954, "modify": 19933, "ponds": 16879, "prohibiting": 26325, "thong": 27468, "##erland": 22492, "##iac": 20469, "19th": 3708, "[unused508]": 513, "##=": 29630, "##ulin": 18639, "\u2086": 1553, "flows": 6223, "landscapes": 12793, "efforts": 4073, "larkin": 25570, "du": 4241, "beyonce": 20773, "fears": 10069, "synthesizer": 13564, "boarding": 9405, "johansson": 26447, "##rted": 17724, "beaumont": 16210, "family": 2155, "rpm": 11575, "shouting": 11273, "woodstock": 21028, "skinned": 19937, "zurich": 10204, "roam": 25728, "[unused790]": 795, "brett": 12049, "deed": 15046, "causal": 28102, "\u2092": 1562, "streamed": 18498, "joyce": 11830, "downhill": 19448, "manly": 19385, "recording": 3405, "participate": 5589, "##wine": 21924, "##zel": 12638, "provisional": 10864, "cradled": 23774, "conductor": 7589, "lambda": 23375, "moths": 14885, "staple": 18785, "##ale": 9453, "formulas": 25814, "farmer": 7500, "xv": 15566, "slabs": 28761, "soda": 14904, "success": 3112, "##kk": 19658, "104": 9645, "goa": 15244, "katherine": 9477, "predictable": 21425, "brodie": 27379, "counting": 10320, "clouds": 8044, "fade": 12985, "thunder": 8505, "sped": 16887, "truce": 18415, "cavalry": 5945, "##hri": 26378, "seen": 2464, "boise": 23193, "shaman": 23610, "hyde": 11804, "casablanca": 24592, "gershwin": 25600, "fontana": 27182, "scissors": 25806, "closes": 14572, "wrenched": 26971, "gifford": 29360, "gerais": 29220, "brief": 4766, "blurred": 18449, "care": 2729, "supplementary": 26215, "elegant": 11552, "hardy": 9532, "accountants": 29114, "fourteen": 7426, "able": 2583, "730": 28004, "[unused889]": 894, "intervene": 18793, "manfred": 19149, "fifty": 5595, "framing": 20241, "##rrado": 27933, "##iga": 13340, "brazil": 4380, "continuum": 22961, "prc": 26141, "veracruz": 23741, "rc": 22110, "##stick": 21354, "picasso": 22457, "cleric": 29307, "filling": 8110, "custer": 28888, "to": 2000, "vivid": 14954, "brutality": 24083, "lose": 4558, "bushes": 14568, "##\u2091": 30090, "provoke": 27895, "noticing": 15103, "tia": 27339, "ding": 22033, "substituted": 17316, "cis": 20199, "##isms": 22556, "remade": 26943, "sleeper": 24372, "princess": 4615, "australian": 2827, "personally": 7714, "##yla": 23943, "[unused966]": 971, "cheung": 22632, "##ost": 14122, "bender": 25386, "##mbled": 23931, "even": 2130, "normandy": 13298, "influenced": 5105, "infectious": 16514, "325": 19652, "rid": 9436, "hello": 7592, "malayalam": 12998, "\u1d2e": 1491, "bingo": 27137, "wilbur": 26151, "honduras": 14373, "tajikistan": 23538, "joy": 6569, "profile": 6337, "##\uff0e": 30517, "##dra": 7265, "##idia": 29342, "feasibility": 24010, "##ge": 3351, "available": 2800, "rebuilding": 14584, "##\u09a4": 29898, "democracy": 7072, "hirsch": 28127, "sage": 10878, "alignment": 12139, "bequeathed": 27180, "steamed": 21734, "wanted": 2359, "##titled": 21309, "slamming": 15209, "shelby": 15294, "\u6c37": 1895, "341": 28358, "thrive": 25220, "##aman": 23093, "un": 4895, "cover": 3104, "doyle": 11294, "deploy": 21296, "offerings": 14927, "fiancee": 19455, "gould": 14913, "estimates": 10035, "hiv": 9820, "pause": 8724, "familiar": 5220, "grading": 26886, "seal": 7744, "boost": 12992, "joo": 28576, "uae": 17641, "##ciation": 23247, "sisters": 5208, "brigades": 14589, "serbs": 16757, "[unused375]": 380, "creaked": 28068, "fluent": 19376, "liz": 9056, "merger": 7660, "rodents": 28156, "##cratic": 17510, "123": 13138, "##eit": 20175, "refusing": 11193, "succeeding": 13034, "library": 3075, "##rrard": 29599, "genes": 9165, "##gned": 19225, "biblical": 10213, "[unused67]": 68, "\u2044": 1535, "friars": 24037, "##\u4eee": 30287, "certainly": 5121, "condemning": 28525, "##pathy": 20166, "raoul": 22063, "##ctive": 15277, "borg": 28709, "fly": 4875, "##vita": 28403, "battered": 17548, "desperate": 7143, "mitsubishi": 19695, "pearls": 21944, "rai": 15547, "notorious": 12536, "spanish": 3009, "sixty": 8442, "##tead": 14565, "redwood": 27552, "##jk": 15992, "##\u4f1a": 30289, "denied": 6380, "hopper": 20517, "##men": 3549, "cass": 16220, "constitutes": 17367, "##nged": 21558, "mountain": 3137, "pinched": 18521, "singing": 4823, "teachings": 12209, "bubbling": 25054, "transylvania": 20816, "notions": 21951, "vaccines": 28896, "coupe": 15130, "explored": 10641, "##kson": 26579, "labelled": 18251, "help": 2393, "reorganization": 17118, "flashback": 21907, "##lative": 26255, "express": 4671, "ridge": 5526, "hooves": 28399, "cypriot": 18543, "jordanian": 26276, "complimented": 27175, "production": 2537, "##tonic": 25009, "##umble": 26607, "480": 17295, "hepburn": 22004, "pills": 15345, "##ished": 13295, "tossed": 7463, "deeds": 15616, "dam": 5477, "horseshoe": 23449, "napier": 21320, "\u09b2": 1373, "pure": 5760, "sphinx": 27311, "factor": 5387, "[unused856]": 861, "spurred": 22464, "presumed": 14609, "bed": 2793, "albion": 13392, "enthusiastic": 14727, "uneven": 17837, "fivb": 28423, "##pping": 14853, "##oat": 16503, "maxi": 21510, "[unused808]": 813, "bean": 14068, "maris": 23787, "eco": 17338, "imp": 17727, "battle": 2645, "rep": 16360, "minneapolis": 11334, "##mering": 27851, "parasite": 21198, "jena": 27510, "denim": 26762, "forged": 16158, "expressway": 11720, "swansea": 16085, "##pit": 23270, "random": 6721, "metric": 12046, "##tones": 11115, "##kumar": 18494, "##otti": 21325, "understood": 5319, "diagnosed": 11441, "##tan": 5794, "homicide": 18268, "intuition": 26406, "[unused202]": 207, "algerian": 16953, "##pia": 19312, "denies": 23439, "[unused252]": 257, "sugar": 5699, "ache": 12336, "electron": 10496, "##key": 14839, "herbal": 27849, "krishna": 10871, "yamamoto": 28318, "comprehension": 26683, "insight": 12369, "hear": 2963, "angel": 4850, "angelo": 12262, "comparative": 12596, "##hari": 18428, "dickson": 22076, "stuck": 5881, "aqua": 28319, "argues": 9251, "robes": 17925, "1970s": 3955, "showered": 23973, "##lake": 14530, "codex": 15763, "meant": 3214, "constable": 12294, "white": 2317, "##\u10e3": 29990, "suggest": 6592, "grin": 5861, "##vic": 7903, "editor": 3559, "##cca": 16665, "jade": 12323, "wrecked": 18480, "batteries": 10274, "hyper": 23760, "rainer": 28035, "dissertation": 14481, "##ants": 11390, "##\u2153": 30109, "ike": 25209, "monks": 9978, "flat": 4257, "[unused337]": 342, "passive": 13135, "seventeen": 9171, "yun": 22854, "mixtape": 18713, "anand": 18887, "[unused44]": 45, "catering": 18640, "##icient": 20132, "chairs": 8397, "convention": 4680, "equation": 8522, "miscellaneous": 25408, "vaulted": 24616, "predator": 15267, "##rian": 6862, "clones": 24418, "facilitates": 27777, "bestowed": 17398, "##uc": 14194, "twenty20": 22240, "##\u4fe1": 30293, "insanity": 19272, "precision": 11718, "1623": 29056, "attacker": 17346, "revolutions": 25239, "norm": 13373, "slowing": 18068, "sorted": 19616, "cooperation": 6792, "denoted": 19537, "grateful": 8794, "slaves": 7179, "steiner": 21264, "operator": 6872, "peyton": 17931, "leaned": 4016, "leyte": 27214, "tina": 11958, "extent": 6698, "boulder": 13264, "affluent": 22666, "stood": 2768, "##ha": 3270, "administrations": 27722, "courtyard": 10119, "estates": 8707, "##wart": 18367, "##vid": 17258, "##\u0283": 29696, "##arium": 17285, "hasty": 27151, "regulators": 25644, "##son": 3385, "##ander": 12243, "contributed": 5201, "pearce": 19560, "honesty": 16718, "stabbing": 21690, "airports": 13586, "##ob": 16429, "formulation": 20219, "organs": 11595, "identifying": 12151, "registrar": 24580, "kappa": 16000, "thames": 11076, "geographically": 20969, "downloaded": 22817, "concern": 5142, "##pi": 8197, "baccalaureate": 27802, "categorized": 20427, "ditch": 14033, "shadows": 6281, "martini": 24480, "pamphlets": 24752, "telecom": 18126, "marjorie": 21562, "propaganda": 10398, "coincide": 19680, "expressed": 5228, "himalayas": 26779, "[unused827]": 832, "puddle": 25081, "flowering": 10902, "reacher": 22970, "oldies": 26826, "titus": 18828, "##leigh": 13615, "pt": 13866, "##\u5cf6": 30359, "analyses": 16478, "surround": 15161, "julia": 6423, "##missive": 27876, "##wyn": 11761, "##fo": 14876, "cautiously": 15151, "hunched": 20498, "propped": 16863, "##\u0294": 29705, "aryan": 26030, "322": 23768, "##layer": 24314, "escalated": 26814, "luce": 19913, "yeast": 21957, "maturity": 16736, "liu": 8607, "##dalen": 26414, "season": 2161, "veteran": 8003, "##rland": 18324, "[unused878]": 883, "annex": 17827, "2006": 2294, "muffled": 15783, "philanthropic": 25321, "conservative": 4603, "dani": 19522, "sound": 2614, "growling": 22413, "tag": 6415, "remixes": 15193, "bees": 13734, "lynne": 26938, "hewitt": 19482, "ye": 6300, "##lands": 8653, "##ley": 3051, "visionary": 28036, "indices": 29299, "anthropological": 28395, "wanna": 10587, "contains": 3397, "best": 2190, "couch": 6411, "commissioners": 12396, "feudal": 16708, "##gno": 26745, "investigate": 8556, "##written": 15773, "imperative": 23934, "##mot": 18938, "strict": 9384, "##\u05d8": 29795, "hey": 4931, "loyalty": 9721, "meets": 6010, "kidney": 14234, "mama": 9588, "pear": 28253, "pilasters": 26752, "reinforced": 11013, "waking": 12447, "nodded": 3368, "##tzer": 29546, "shadow": 5192, "skater": 18815, "everyday": 10126, "slammed": 7549, "##sms": 19230, "sheer": 11591, "chronic": 11888, "barron": 23594, "bedrock": 28272, "spence": 22186, "blockade": 15823, "oakland": 9182, "\u0937": 1337, "lucas": 6326, "wadi": 28380, "pickering": 27078, "ponder": 29211, "lit": 5507, "##feld": 8151, "condemnation": 26248, "julien": 19290, "backside": 25065, "routledge": 21180, "mum": 12954, "greed": 22040, "drenched": 25265, "[unused485]": 490, "graham": 5846, "notwithstanding": 26206, "consequently": 8821, "options": 7047, "razor": 15082, "tokugawa": 22065, "constantinople": 11776, "groups": 2967, "willed": 22705, "muted": 22124, "##tropical": 25528, "hypothesis": 10744, "unfit": 29439, "wilde": 18575, "nets": 16996, "summers": 10945, "stylized": 19551, "\u0bae": 1389, "\u09b7": 1375, "##\u1175": 30019, "islanders": 16422, "galicia": 19017, "masonry": 18103, "bruised": 18618, "tho": 27793, "supporter": 10129, "hood": 7415, "bows": 21207, "subgroup": 20576, "heller": 25038, "sketches": 12741, "flipped": 9357, "colleagues": 8628, "entry": 4443, "belongs": 7460, "francesca": 15409, "bitten": 19026, "deteriorated": 20111, "sean": 5977, "dismounted": 29580, "##ssel": 21218, "lesson": 10800, "cot": 26046, "ganga": 28646, "mr": 2720, "##ance": 6651, "1881": 7005, "date": 3058, "affiliates": 18460, "shepherd": 11133, "sore": 14699, "passed": 2979, "meritorious": 22053, "surgeons": 16804, "wisconsin": 5273, "##rium": 18802, "kansas": 5111, "standardization": 28648, "bind": 14187, "over": 2058, "throbbed": 27714, "static": 10763, "##ication": 21261, "##\u02be": 29713, "massif": 24875, "a": 1037, "invention": 11028, "bacterium": 24024, "irvine": 16272, "triad": 25355, "##sport": 20205, "##vard": 25911, "2nd": 3416, "efficient": 8114, "\u05d5": 1246, "compensate": 19079, "melodies": 16106, "prompt": 25732, "\u306e": 1671, "costume": 9427, "raju": 25098, "disconnected": 23657, "feared": 8615, "modern": 2715, "bullet": 7960, "partition": 13571, "204": 19627, "balls": 7395, "boon": 23264, "is": 2003, "programs": 3454, "rites": 17105, "##oun": 23709, "turkmenistan": 25432, "##ain": 8113, "##lai": 19771, "advisory": 7319, "cougars": 26317, "##ross": 25725, "fabian": 21174, "[unused611]": 616, "coast": 3023, "digital": 3617, "treat": 7438, "hoisted": 27269, "action": 2895, "##xley": 20959, "parisian": 24262, "utterly": 12580, "rest": 2717, "murmur": 20227, "superior": 6020, "bianca": 18051, "serial": 7642, "onwards": 9921, "phase": 4403, "##dos": 12269, "youngest": 6587, "cult": 8754, "fiona": 13073, "90": 3938, "[unused624]": 629, "majors": 15279, "[unused840]": 845, "modelling": 19518, "tee": 17170, "latvia": 12429, "advisor": 8619, "become": 2468, "resembling": 15525, "sham": 25850, "reprint": 25364, "tattoo": 11660, "frankish": 26165, "##ear": 14644, "funds": 5029, "thy": 15177, "curt": 20099, "arrive": 7180, "loss": 3279, "philippe": 11169, "##ang": 5654, "mushroom": 18565, "programming": 4730, "##iculate": 24153, "##udge": 15979, "##\u3044": 30173, "gonzalez": 10121, "cake": 9850, "[unused929]": 934, "fender": 19028, "carrie": 13223, "##lization": 22731, "isn": 3475, "##r": 2099, "dead": 2757, "##astic": 20875, "gloom": 24067, "drastic": 23956, "stereotypes": 22807, "listening": 5962, "completely": 3294, "##aneous": 17191, "shivering": 19197, "##\u05e5": 29808, "tier": 7563, "##pling": 14353, "pietro": 15541, "##am": 3286, "dixon": 11357, "evaluation": 9312, "haired": 10681, "hamid": 24811, "##\u524d": 30302, "jewel": 13713, "slang": 21435, "ja": 14855, "##uel": 16284, "alto": 10766, "\u5065": 1768, "##\u0905": 29847, "practically": 8134, "wiltshire": 17045, "narrated": 17356, "##je": 6460, "##van": 6212, "alias": 14593, "latch": 25635, "comedies": 22092, "jihad": 24815, "##lity": 18605, "##\u9053": 30483, "##chy": 11714, "inactivated": 15663, "contradictory": 27894, "clip": 12528, "gods": 5932, "humanitarian": 11470, "##\u10d2": 29976, "provisions": 8910, "politicians": 8801, "classified": 6219, "trainer": 10365, "kirk": 11332, "nee": 7663, "co": 2522, "sonya": 27926, "immigrant": 11560, "##rop": 18981, "##rn": 6826, "avenge": 24896, "destinations": 14345, "zack": 13658, "[unused883]": 888, "kiel": 20963, "wit": 15966, "sighs": 19906, "\u0e15": 1411, "employment": 6107, "[unused290]": 295, "##dust": 24220, "commune": 5715, "k": 1047, "waste": 5949, "##acker": 25418, "amended": 13266, "montgomery": 8482, "parry": 20803, "centered": 8857, "##\u5c0f": 30355, "husband": 3129, "\u0e27": 1419, "mana": 24951, "primera": 14837, "benton": 18685, "##ears": 26492, "greasy": 26484, "reddy": 18998, "leads": 5260, "moreover": 9308, "\u1169": 1475, "accountable": 26771, "daddy": 8600, "##4th": 26724, "prep": 17463, "experiencing": 13417, "##tsky": 26824, "##26": 23833, "##lling": 13112, "assassinated": 16370, "inmates": 13187, "chiefly": 15897, "songwriter": 6009, "##een": 12129, "keller": 16155, "marathon": 8589, "shrubs": 18812, "vapor": 20064, "\u1d43": 1496, "arrays": 27448, "depleted": 22595, "contribution": 6691, "##mission": 25481, "employed": 4846, "judo": 19083, "incentive": 20438, "##oue": 27872, "brendan": 15039, "hoarse": 21221, "jody": 27562, "rooney": 24246, "suggests": 6083, "trance": 16588, "developer": 9722, "##uss": 17854, "##\u8fb6": 30482, "paramilitary": 22258, "##eter": 15141, "##erin": 23282, "grady": 19011, "##oder": 27381, "barnet": 26864, "paragraph": 20423, "writings": 7896, "180": 8380, "##\u660e": 30391, "tribute": 7050, "graded": 21976, "259": 25191, "periodical": 21802, "billions": 25501, "identified": 4453, "schumann": 29448, "torre": 22047, "artist": 3063, "eliot": 16292, "encoded": 12359, "##sle": 25016, "\u2078": 1542, "assumed": 5071, "symphonic": 18957, "[unused863]": 868, "constitutional": 6543, "##osaurus": 25767, "223": 20802, "handle": 5047, "[unused349]": 354, "##ease": 19500, "adjusting": 19158, "wished": 6257, "elk": 18995, "dahl": 27934, "spike": 9997, "dutton": 28784, "jane": 4869, "50th": 12951, "adult": 4639, "britain": 3725, "macbeth": 25182, "annexation": 18985, "dimly": 25361, "respectful": 26438, "covent": 29456, "young": 2402, "fry": 14744, "lighter": 9442, "stefan": 8852, "lithuanian": 10333, "##\u00be": 29665, "photo": 6302, "elevations": 18166, "levy": 12767, "##\u7ae0": 30458, "billie": 18210, "meath": 26856, "edited": 5493, "##rmi": 28550, "leeds": 7873, "prevent": 4652, "##olf": 28027, "385": 24429, "##im": 5714, "[unused824]": 829, "latvian": 14698, "1682": 29478, "verandah": 26153, "vernon": 11447, "##\u0997": 29891, "condom": 20910, "hermann": 12224, "bandage": 24446, "phyllis": 20328, "complained": 10865, "kerala": 8935, "squinting": 29156, "##47": 22610, "brien": 9848, "bromley": 27979, "kiss": 3610, "30": 2382, "mist": 11094, "my": 2026, "bragg": 23678, "insurance": 5427, "decreased": 10548, "##ump": 24237, "loyalist": 23414, "margaret": 5545, "moons": 23377, "strait": 11195, "lafayette": 14425, "craftsmen": 25736, "sunny": 11559, "elle": 15317, "75th": 25092, "sinatra": 19643, "body": 2303, "joined": 2587, "pawn": 19175, "tub": 14366, "operators": 9224, "idols": 24438, "isabel": 11648, "inlet": 15824, "palestinian": 9302, "##osomal": 27642, "##oked": 23461, "##ker": 5484, "applicant": 23761, "determining": 12515, "1935": 4437, "schwartz": 16756, "arctic": 10162, "spectacle": 21177, "playoffs": 7555, "236": 23593, "lei": 26947, "kilograms": 18857, "##etti": 18319, "1875": 7466, "610": 19827, "1611": 28769, "kai": 11928, "thinkers": 24762, "##iya": 8717, "hr": 17850, "jailed": 21278, "dying": 5996, "retrospective": 15354, "##keepers": 24764, "emphasizing": 22671, "sliced": 15920, "##\u0282": 29695, "boxes": 8378, "anwar": 28372, "lizards": 23898, "traditional": 3151, "iv": 4921, "[unused755]": 760, "simon": 4079, "hectare": 20406, "##nse": 12325, "sorting": 22210, "\u05e1": 1258, "##200": 28332, "killer": 6359, "blossoms": 28766, "##hrer": 17875, "embedded": 11157, "consider": 5136, "321": 24030, "pagoda": 27387, "jets": 9924, "\u5bae": 1824, "apartments": 9620, "donegal": 25415, "##nie": 8034, "station": 2276, "##sford": 17658, "vuelta": 21441, "2000s": 8876, "chaos": 8488, "##\u0f54": 29966, "supplying": 17731, "fighter": 4959, "93": 6109, "##tose": 22282, "[unused28]": 29, "##church": 22743, "internationals": 27340, "sellers": 19041, "goes": 3632, "speak": 3713, "##^": 29637, "[unused370]": 375, "bitter": 8618, "freed": 10650, "africans": 18076, "sho": 26822, "##run": 15532, "rig": 19838, "enabling": 12067, "corrosion": 24625, "silly": 10021, "fledgling": 25954, "illuminated": 14640, "##rai": 14995, "##\u2013": 30051, "1685": 25053, "grasslands": 26183, "immune": 11311, "retired": 3394, "calming": 23674, "moi": 25175, "##id": 3593, "patrols": 14703, "resonance": 17011, "shipped": 12057, "stoke": 13299, "gain": 5114, "##ote": 12184, "mussolini": 22554, "stalks": 29594, "wind": 3612, "probability": 9723, "asa": 17306, "responses": 10960, "swap": 19948, "cutter": 16343, "##block": 23467, "trondheim": 26331, "emptiness": 23397, "[unused811]": 816, "vibrated": 27801, "jerk": 12181, "premium": 12882, "##ina": 3981, "dee": 9266, "##tz": 5753, "dubbed": 9188, "musa": 23154, "##ire": 7442, "##uance": 26620, "commanders": 11437, "easier": 6082, "##flict": 29301, "shifter": 18189, "\u0282": 1129, "[unused166]": 171, "abnormalities": 28828, "peer": 8152, "cleaned": 12176, "null": 19701, "##active": 19620, "curtains": 14694, "rex": 10151, "swarm": 21708, "##inator": 23207, "tournament": 2977, "peaking": 13015, "phases": 12335, "issn": 23486, "derives": 12153, "dismiss": 19776, "proclamation": 16413, "advised": 9449, "\u30cf": 1718, "evicted": 25777, "bangladeshi": 24267, "##chase": 26300, "##economic": 23035, "modified": 6310, "##\u00a7": 29650, "##gence": 17905, "colder": 21399, "bloomfield": 25584, "\u2264": 1608, "oversees": 22558, "lasers": 23965, "##rien": 23144, "disdain": 25134, "deportation": 23702, "questioned": 8781, "\u4eba": 1756, "##aith": 22465, "##yer": 10532, "relegation": 9591, "\u0993": 1352, "##lithic": 28508, "##kali": 28613, "worship": 7425, "##ulsion": 23316, "\u90e1": 1959, "mfa": 26913, "mammalian": 26524, "recommended": 6749, "##rg": 10623, "weekdays": 19759, "relics": 16712, "##iz": 10993, "[unused954]": 959, "paw": 22195, "shuffled": 18764, "wehrmacht": 23443, "##dicated": 26022, "addressed": 8280, "##vius": 26055, "referred": 3615, "##mut": 28120, "##lynn": 27610, "manage": 6133, "courtesy": 14571, "voiced": 6126, "kun": 28919, "##ouring": 27897, "craft": 7477, "parting": 20254, "amusement": 9778, "personalities": 12857, "drury": 25663, "elegance": 27745, "fallen": 5357, "starred": 5652, "pitch": 6510, "suggesting": 9104, "utilizing": 16911, "mack": 11349, "##\u056c": 29773, "purification": 28406, "coaster": 16817, "racks": 27259, "1840": 8905, "rode": 8469, "foster": 6469, "maximilian": 18838, "simulated": 23599, "crank": 27987, "chewed": 18362, "\u20b9": 1576, "##grating": 28183, "devils": 13664, "dresses": 14464, "somehow": 5064, "metabolism": 18089, "peach": 18237, "grimes": 24865, "arturo": 20520, "kennedy": 5817, "pulling": 4815, "driving": 4439, "##nen": 10224, "superman": 10646, "\u0e22": 1416, "intersections": 26540, "##vent": 15338, "filly": 22062, "cooper": 6201, "adults": 6001, "winnie": 27125, "lissa": 20244, "fallon": 16443, "brows": 11347, "wavelengths": 29263, "phillips": 8109, "proprietary": 16350, "fascination": 18987, "firing": 7493, "lately": 9906, "rca": 12639, "archaeologists": 19254, "articulated": 20742, "misunderstood": 28947, "exploit": 18077, "shipyard": 13858, "fairbanks": 24502, "parc": 27985, "##gus": 12349, "arrested": 4727, "[unused343]": 348, "draws": 9891, "shivered": 13927, "veil": 15562, "##drop": 25711, "russ": 18072, "frowns": 29303, "##ster": 6238, "elena": 9060, "involve": 9125, "##\u2096": 30094, "canine": 28735, "asteroids": 26732, "lightly": 8217, "mcnamara": 28340, "sovereign": 11074, "aviv": 12724, "code": 3642, "##\u1d43": 30032, "notch": 18624, "balkan": 17581, "satan": 16795, "choose": 5454, "josie": 15293, "blackmail": 25044, "bob": 3960, "hanson": 17179, "spaceship": 25516, "churchyard": 19812, "##tray": 28473, "wallis": 24029, "welcome": 6160, "willingly": 18110, "clap": 28618, "1941": 3874, "nbl": 28013, "death": 2331, "\u3001": 1635, "divine": 7746, "##sler": 20590, "kitchener": 27154, "enough": 2438, "suppose": 6814, "##lic": 10415, "##enne": 24336, "very": 2200, "castes": 26254, "exposure": 7524, "1828": 11517, "\u4e0a": 1742, "glowing": 10156, "##\u6e05": 30429, "##we": 8545, "interfering": 24324, "##ot": 4140, "idf": 24011, "##rcus": 29006, "admission": 9634, "subtle": 11259, "remained": 2815, "[unused528]": 533, "prohibits": 25822, "metals": 11970, "cantata": 23629, "tournaments": 8504, "calling": 4214, "participants": 6818, "##side": 7363, "##\u85e4": 30470, "annie": 8194, "roared": 14242, "immortals": 26796, "buckle": 22853, "houses": 3506, "##lco": 22499, "alright": 10303, "brave": 9191, "consortium": 12360, "ideas": 4784, "violinist": 16609, "covering": 5266, "donnell": 18016, "humid": 14178, "delivering": 12771, "gma": 20917, "christians": 8135, "##pole": 15049, "differences": 5966, "absence": 6438, "disturb": 22995, "former": 2280, "ked": 16135, "materialized": 27075, "pacing": 15732, "ears": 5551, "##lau": 17298, "##ressed": 16119, "posing": 20540, "separately": 10329, "##hak": 20459, "crossings": 20975, "din": 11586, "##jas": 17386, "lifts": 13695, "##kov": 7724, "diocesan": 18680, "profession": 9518, "munchen": 25802, "derby": 7350, "emil": 16243, "164": 17943, "telecommunication": 25958, "knicks": 27817, "##erie": 17378, "wrestler": 10706, "entertainer": 21751, "breeding": 8119, "honourable": 17164, "##\u1100": 29991, "tailor": 22701, "[unused81]": 82, "residues": 22644, "##inatory": 28230, "unnecessary": 14203, "glee": 18874, "curving": 21439, "##\u0926": 29861, "##\u6771": 30405, "carly": 18431, "waterloo": 13784, "emirates": 14041, "pretty": 3492, "basket": 10810, "freddy": 19343, "various": 2536, "working": 2551, "##drive": 23663, "##rce": 19170, "[unused582]": 587, "subject": 3395, "glasses": 7877, "##crats": 23423, "##dda": 25062, "##iae": 19001, "[unused738]": 743, "kilkenny": 17131, "qui": 21864, "stark": 9762, "##erre": 28849, "ou": 15068, "pilgrim": 21214, "francisco": 3799, "just": 2074, "nothing": 2498, "translucent": 22897, "##sun": 19729, "atv": 29108, "curiously": 16484, "southernmost": 21787, "\u00a8": 1074, "lord": 2935, "dependent": 7790, "milos": 26038, "piercing": 14628, "brightness": 18295, "orthogonal": 28721, "fibre": 20962, "##oga": 18170, "##vino": 26531, "\u674e": 1877, "reverse": 7901, "[unused586]": 591, "pumpkin": 25730, "\u03c4": 1174, "riaa": 22716, "courtney": 14139, "pendant": 23152, "\u9752": 1975, "lo": 8840, "\u0283": 1130, "pak": 22190, "irritation": 17373, "rescuing": 23659, "immigrants": 7489, "vacuum": 11641, "\u6709": 1873, "candle": 13541, "denmark": 5842, "##\u5317": 30307, "earnings": 16565, "unsuitable": 25622, "propulsion": 16404, "telephone": 7026, "##.": 29625, "241": 22343, "filipino": 10275, "force": 2486, "fertility": 17376, "enforce": 16306, "genevieve": 20245, "pistols": 18248, "ideal": 7812, "sense": 3168, "\u05e3": 1260, "females": 3801, "1646": 28783, "##\u300f": 30170, "64": 4185, "##ll": 3363, "line": 2240, "carlton": 12989, "171": 18225, "paralysis": 26287, "##nding": 15683, "excavation": 16456, "gentleman": 10170, "undercover": 16382, "christopher": 5696, "##ads": 19303, "held": 2218, "repay": 24565, "daggers": 24210, "39": 4464, "##lang": 25023, "##yeh": 25673, "thoroughbred": 18359, "\u2021": 1527, "##\u6f22": 30430, "schooling": 14118, "role": 2535, "mcdowell": 25005, "impose": 17607, "reunited": 11653, "foreign": 3097, "handsome": 8502, "swallowing": 18468, "gigs": 20929, "##ised": 5084, "touching": 7244, "delaney": 22101, "romanized": 7651, "##c": 2278, "shay": 18789, "##ots": 12868, "##cu": 10841, "cantonese": 22241, "reasoning": 13384, "##her": 5886, "tar": 16985, "gospel": 8036, "noble": 7015, "thoughtful": 16465, "expand": 7818, "hushed": 24033, "sprinted": 25156, "grill": 18651, "mo": 9587, "sued": 12923, "distraught": 25348, "1880": 6756, "##rys": 24769, "##rc": 11890, "vodka": 21092, "##led": 3709, "300": 3998, "##9": 2683, "messages": 7696, "governance": 10615, "horsemen": 25431, "rubbish": 29132, "hickory": 28158, "nz": 20008, "sole": 7082, "##sund": 25168, "##\u0633": 29824, "hogan": 14851, "nas": 17235, "##\u056b": 29772, "whistling": 24350, "babu": 20948, "equivalent": 5662, "[unused277]": 282, "ana": 9617, "fluids": 20989, "wine": 4511, "ascended": 19644, "preventing": 10723, "abandonment": 22290, "##gawa": 21188, "asteroid": 12175, "kirby": 15129, "physically": 8186, "facilitate": 10956, "##uan": 13860, "internship": 22676, "dynamo": 17205, "ministers": 7767, "expansion": 4935, "modernization": 20181, "46": 4805, "studies": 2913, "##\u0935": 29871, "sg": 22214, "aura": 15240, "civil": 2942, "crusade": 16282, "##bill": 24457, "\u05d4": 1245, "franchises": 22506, "dripped": 22526, "##40": 12740, "ferrer": 28390, "##rcle": 21769, "clears": 28837, "alloys": 28655, "plausible": 24286, "peeling": 28241, "blessing": 13301, "##quel": 22197, "1980": 3150, "brink": 20911, "grips": 24758, "hierarchy": 12571, "majestic": 22337, "ambassadors": 20986, "same": 2168, "separation": 8745, "spanned": 18212, "appear": 3711, "robotics": 21331, "right": 2157, "act": 2552, "##iki": 17471, "foothills": 18455, "renaming": 24944, "1622": 28133, "##market": 20285, "assets": 7045, "java": 9262, "##gam": 22864, "##gie": 11239, "downtown": 5116, "treaties": 16013, "bell": 4330, "alabama": 6041, "##chrome": 20366, "slight": 7263, "fisted": 28273, "\u2090": 1560, "talents": 11725, "jurisdiction": 7360, "algorithm": 9896, "db": 16962, "hana": 26048, "1689": 22685, "liter": 23675, "clumsy": 22902, "##\u0641": 29833, "divorce": 8179, "##ezer": 25733, "bit": 2978, "\u7a7a": 1930, "seymour": 13254, "procurement": 21423, "cock": 10338, "##ead": 13775, "carey": 11782, "##utation": 26117, "defined": 4225, "excitedly": 23885, "##esis": 19009, "garrison": 8427, "sweetie": 22872, "##ol": 4747, "violins": 25877, "backs": 10457, "mariana": 22097, "significantly": 6022, "kevin": 4901, "biennale": 21140, "[unused569]": 574, "##scent": 27654, "defended": 8047, "joked": 19700, "outcomes": 13105, "tanned": 25973, "modeled": 14440, "possess": 10295, "##dermott": 29370, "##usa": 10383, "encompass": 25281, "##\u6b4c": 30412, "causes": 5320, "1753": 23810, "turnout": 15512, "##kh": 10023, "landscaping": 28404, "hitting": 7294, "irina": 25404, "##gaon": 27073, "resides": 11665, "##ronia": 28140, "231": 20304, "maximum": 4555, "pollen": 22482, "steered": 23424, "##fire": 10273, "##lund": 18028, "galaxy": 9088, "paste": 19351, "burkina": 23089, "##chev": 16179, "midland": 12240, "##anta": 26802, "##tsk": 29064, "administered": 8564, "elongated": 17876, "acquainted": 19056, "\u092a": 1328, "monsoon": 19183, "increase": 3623, "##pad": 15455, "trench": 14185, "1655": 28438, "\u09b0": 1372, "ocean": 4153, "tehsil": 20751, "wink": 16837, "fir": 21554, "ik": 20912, "cox": 9574, "##world": 11108, "##onzo": 29452, "jian": 29214, "equatorial": 21333, "apartheid": 17862, "staged": 9813, "prize": 3396, "##get": 18150, "##\u0f0d": 29961, "ultraviolet": 26299, "##\u1d64": 30044, "[unused190]": 195, "[unused330]": 335, "inexpensive": 23766, "##ngo": 16656, "##jia": 26541, "advance": 5083, "##\u0131": 11722, "count": 4175, "hot": 2980, "coal": 5317, "mein": 24182, "kan": 22827, "eminent": 14953, "##media": 16969, "lucivar": 21401, "ghosts": 11277, "offence": 15226, "pirate": 11304, "\u05ea": 1267, "bride": 8959, "install": 16500, "consecrated": 12299, "choir": 6596, "harness": 17445, "\u116d": 1477, "tragedy": 10576, "accommodation": 11366, "##tou": 24826, "sit": 4133, "##jad": 27875, "[unused450]": 455, "hung": 5112, "horsepower": 15149, "abdullah": 14093, "etudes": 25041, "[unused831]": 836, "emi": 12495, "subsided": 26588, "statewide": 13486, "encounter": 8087, "uniformed": 25189, "fast": 3435, "##\u116a": 30012, "fluctuations": 28892, "[unused208]": 213, "locke": 18343, "free": 2489, "neighbourhoods": 27535, "crown": 4410, "merchandise": 16359, "vienna": 6004, "##haya": 26115, "##\u0635": 29826, "##upt": 29441, "amos": 13744, "[unused34]": 35, "barbed": 25007, "illinois": 4307, "patrolling": 24248, "##\u028b": 29699, "subscribers": 17073, "somerset": 9198, "##\u0989": 29886, "tempted": 16312, "enjoying": 9107, "\u2265": 1609, "backgrounds": 15406, "##\u2020": 30061, "menon": 25111, "##xon": 22500, "consistency": 18700, "collaborated": 8678, "consequence": 9509, "such": 2107, "telescopes": 28026, "rica": 11509, "nucleus": 13502, "again": 2153, "##dler": 21222, "mackenzie": 11407, "##ski": 5488, "california": 2662, "##kor": 21815, "##unt": 16671, "organise": 22933, "beauty": 5053, "##tically": 25084, "feels": 5683, "scoring": 4577, "employer": 11194, "ramp": 13276, "analyst": 12941, "##rini": 22612, "attacking": 7866, "cows": 17188, "[unused296]": 301, "pitched": 8219, "relatives": 9064, "\u1165": 1472, "needy": 23927, "##rum": 6824, "##urne": 21737, "\u6cb3": 1899, "1913": 5124, "##cent": 13013, "met": 2777, "curses": 23897, "nebula": 25677, "absorbed": 9063, "materials": 4475, "##genic": 16505, "[unused542]": 547, "sharpe": 22147, "stanis\u0142aw": 26133, "liberation": 7931, "machine": 3698, "stampede": 29375, "ski": 8301, "##pher": 27921, "casper": 24602, "##lbert": 23373, "burgundy": 18383, "masculine": 14818, "dressing": 11225, "electrical": 5992, "fifa": 5713, "ordination": 18129, "siberia": 16881, "topological": 24309, "450": 10332, "ty": 5939, "dhaka": 16479, "huff": 21301, "skies": 15717, "instrumental": 6150, "berry": 10498, "witches": 12566, "laboratory": 5911, "331": 27533, "##fi": 8873, "anya": 21728, "norwood": 22804, "ruled": 5451, "##kian": 28545, "2500": 25108, "bayou": 24818, "mixing": 6809, "interpretations": 15931, "[unused110]": 115, "[unused480]": 485, "filthy": 18294, "mangrove": 29340, "nobleman": 18487, "\u30fc": 1739, "commissioned": 4837, "gloucester": 13370, "takes": 3138, "\u1d50": 1502, "flu": 19857, "sane": 22856, "reece": 24227, "155": 14168, "[unused464]": 469, "disguise": 14249, "ringo": 25589, "airship": 27636, "em": 7861, "##ng": 3070, "##cd": 19797, "judy": 12120, "celebration": 7401, "\u30c3": 1711, "harmon": 25546, "racer": 14878, "referee": 5330, "##;": 29628, "1878": 7261, "bays": 13933, "kangaroo": 21652, "##flow": 12314, "[unused418]": 423, "23rd": 13928, "##dp": 18927, "##\u201e": 30060, "buckinghamshire": 21712, "high": 2152, "comedian": 9971, "goat": 13555, "inputs": 20407, "state": 2110, "strawberry": 16876, "orders": 4449, "fletcher": 10589, "[unused22]": 23, "background": 4281, "##\u30cb": 30242, "hosted": 4354, "doug": 8788, "sand": 5472, "protesting": 21248, "[unused340]": 345, "research": 2470, "##tics": 14606, "stepmother": 26959, "alarms": 29034, "roberta": 23455, "gun": 3282, "[unused851]": 856, "[unused953]": 958, "\u00d7": 1095, "playable": 16854, "athletic": 5188, "policies": 6043, "lakes": 6597, "una": 14477, "carving": 18441, "##pour": 27757, "[unused173]": 178, "basil": 14732, "downstream": 13248, "foot": 3329, "inserted": 12889, "looks": 3504, "##rage": 24449, "##mber": 21784, "##rell": 16230, "domenico": 18638, "##ophone": 25232, "##ffen": 18032, "shaw": 8233, "##itha": 26054, "disaster": 7071, "fastened": 24009, "rows": 10281, "shoved": 7468, "##uously": 28078, "minnesota": 5135, "graves": 9729, "philosopher": 9667, "progressively": 20519, "[unused518]": 523, "##put": 18780, "arabian": 13771, "invincible": 25018, "cyril": 16049, "##christ": 26654, "##do": 3527, "implication": 25323, "ile": 17869, "october": 2255, "gorge": 14980, "einstein": 15313, "##hua": 14691, "trevor": 8672, "corbett": 24119, "[unused820]": 825, "idea": 2801, "nixon": 11296, "##odes": 19847, "traveling": 7118, "bred": 13680, "danger": 5473, "ribs": 10335, "\u10d0": 1438, "symmetrical": 23476, "landfill": 28382, "grabbed": 4046, "ashford": 26545, "##houses": 15666, "muir": 23110, "predictions": 20932, "[unused151]": 156, "##icides": 22698, "contradiction": 26917, "o": 1051, "neolithic": 19061, "##kes": 9681, "frankie": 12784, "muslims": 7486, "saudi": 8174, "silvio": 28107, "\u6c35": 1894, "let": 2292, "transition": 6653, "\u0dbd": 1406, "\u0576": 1231, "chick": 14556, "dreamed": 13830, "##iology": 20569, "##\u9752": 30501, "exiled": 14146, "##\u043f": 29746, "killing": 4288, "##wg": 27767, "den": 7939, "palestine": 8976, "lockheed": 17646, "childish": 24282, "adobe": 18106, "saves": 13169, "divert": 27345, "rye": 20926, "\uff0c": 1989, "insights": 20062, "chevalier": 22019, "motorsport": 21044, "northumberland": 16205, "fire": 2543, "appellate": 23240, "armstrong": 9143, "pushing": 6183, "slovakia": 10991, "\u03c9": 1179, "danzig": 26669, "article": 3720, "##iel": 9257, "but": 2021, "1907": 5528, "amid": 13463, "670": 25535, "eileen": 20495, "evening": 3944, "revenge": 7195, "tsunami": 19267, "##wai": 21547, "theirs": 17156, "diaspora": 18239, "recital": 25521, "##\u4e3b": 30273, "deliveries": 23534, "appearance": 3311, "[unused90]": 91, "sharif": 20351, "stiff": 10551, "choice": 3601, "##\u05e6": 29809, "##tal": 9080, "printing": 8021, "[unused472]": 477, "[unused93]": 94, "21": 2538, "##ocytes": 28788, "##\u2212": 22543, "kindness": 16056, "skills": 4813, "helene": 20149, "##mers": 16862, "##by": 3762, "plates": 7766, "persistent": 14516, "doom": 12677, "board": 2604, "releasing": 8287, "##xin": 20303, "maharashtra": 12434, "[unused903]": 908, "spielberg": 28740, "mbc": 27262, "150": 5018, "\u2084": 1551, "antagonist": 17379, "burying": 20491, "##mt": 20492, "##wyl": 27740, "extends": 8908, "mainland": 8240, "york": 2259, "rosa": 9508, "sawyer": 13975, "##rase": 23797, "##you": 29337, "breathed": 8726, "low": 2659, "assemblies": 17720, "measure": 5468, "##bu": 8569, "recognizing": 14622, "##ogenic": 24278, "crafts": 14030, "hell": 3109, "tore": 9538, "madness": 12013, "sails": 17553, "##din": 8718, "sentence": 6251, "adept": 26398, "deities": 17091, "crop": 10416, "temporary": 5741, "blend": 12586, "freud": 19338, "innsbruck": 28914, "sbs": 21342, "remembrance": 19451, "##ister": 12911, "for": 2005, "forgetting": 17693, "eclectic": 20551, "negotiated": 13630, "##torm": 20654, "##yria": 20379, "[unused152]": 157, "automatically": 8073, "favourite": 8837, "unicef": 29073, "##rrier": 27051, "glitter": 27566, "markers": 16387, "submarines": 12622, "pulsed": 24107, "plurality": 29018, "cas": 25222, "##eira": 21302, "aroma": 23958, "##liche": 27412, "absorption": 16326, "genres": 11541, "school": 2082, "steward": 17946, "uniform": 6375, "warmer": 16676, "pageant": 12438, "##6th": 25994, "##rik": 15564, "beverly": 12218, "det": 20010, "efficacy": 21150, "kick": 5926, "metal": 3384, "cesar": 14923, "hopping": 26397, "located": 2284, "##kova": 18810, "caesar": 11604, "hosting": 9936, "##65": 26187, "anastasia": 19447, "slacks": 27786, "1680": 24621, "##bolic": 18647, "1925": 4849, "mughal": 17877, "floyd": 12305, "separates": 18600, "reeves": 17891, "maggie": 8538, "[unused294]": 299, "sprawling": 24199, "counsel": 9517, "lands": 4915, "\u06cc": 1309, "inquired": 24849, "##\u057f": 29783, "##nb": 27698, "##pore": 26691, "enzo": 26218, "measures": 5761, "rod": 8473, "gag": 18201, "##puram": 17809, "eu": 7327, "##bold": 27495, "poker": 11662, "##efe": 27235, "penned": 17430, "1560": 29185, "burnett": 13829, "neat": 15708, "unpleasant": 16010, "bahia": 22474, "mickey": 11021, "stolen": 7376, "##\u306b": 30194, "transmit": 19818, "hampton": 11615, "consonants": 19694, "poznan": 18320, "responsible": 3625, "##\u05d5": 29792, "[unused394]": 399, "raise": 5333, "4": 1018, "emeritus": 12372, "encircled": 25759, "wake": 5256, "zebra": 29145, "\u304b": 1651, "##jer": 20009, "##sser": 18116, "##\u0629": 19433, "strike": 4894, "nazi": 6394, "praying": 14488, "##lla": 4571, "\u05e4": 1261, "coloured": 11401, "optic": 22816, "wavy": 23098, "mic": 23025, "accessories": 16611, "installment": 18932, "##don": 5280, "minsk": 20790, "news": 2739, "rohan": 28605, "##urai": 24804, "buster": 18396, "capacities": 21157, "raised": 2992, "thrilled": 16082, "\u3009": 1638, "##\u1109": 29997, "atom": 13787, "blushed": 19370, "conrad": 10931, "verbal": 12064, "##agawa": 20812, "sprint": 9043, "cbs": 6568, "pixels": 27725, "1850s": 16488, "##boat": 11975, "[unused832]": 837, "treasurer": 10211, "agrees": 10217, "likeness": 28275, "##\u30ab": 30226, "funk": 11962, "##iciencies": 28227, "morgan": 5253, "##dance": 25514, "clue": 9789, "protect": 4047, "greyhound": 21220, "leone": 13363, "accountability": 17842, "restart": 23818, "criticized": 6367, "reginald": 14435, "portrays": 17509, "##hora": 16977, "practitioner": 18742, "guitar": 2858, "thirteen": 7093, "##ution": 13700, "sven": 21313, "amsterdam": 7598, "stacey": 19997, "simple": 3722, "##ices": 23522, "##ingen": 15542, "ukrainian": 5969, "##load": 11066, "##ais": 15593, "167": 16785, "[unused458]": 463, "colorful": 14231, "shire": 13182, "##\u062e": 29821, "have": 2031, "cumberland": 12310, "##bh": 23706, "judging": 13325, "hut": 12570, "booth": 9065, "swan": 10677, "##typic": 23186, "touched": 5028, "afl": 10028, "brightly": 14224, "disorders": 10840, "##pac": 19498, "lang": 11374, "expresses": 16783, "earth": 3011, "\u8279": 1939, "##zar": 9057, "wrestlemania": 28063, "largest": 2922, "##nsis": 11745, "\u90ce": 1958, "estimation": 24155, "settling": 9853, "gift": 5592, "baron": 5797, "dylan": 7758, "application": 4646, "goth": 25976, "says": 2758, "participation": 6577, "168": 16923, "huge": 4121, "dreadful": 21794, "##29": 24594, "andrei": 18125, "shower": 6457, "##ages": 13923, "##\u30bf": 30235, "frustration": 9135, "marathi": 18388, "dynamic": 8790, "##zaki": 18637, "[unused499]": 504, "haas": 22996, "constellation": 15300, "guaranteed": 12361, "seizing": 24681, "[unused733]": 738, "murdering": 21054, "mont": 18318, "silky": 18848, "crack": 8579, "height": 4578, "emory": 25853, "##amina": 27651, "tests": 5852, "spite": 8741, "botswana": 19414, "##ned": 7228, "screens": 12117, "ang": 17076, "labels": 10873, "user": 5310, "[unused414]": 419, "##hesis": 24124, "friday": 5958, "democrats": 8037, "curran": 19649, "1947": 4006, "##eth": 11031, "neville": 14871, "edges": 7926, "compressed": 16620, "playground": 14705, "mecca": 21340, "batch": 14108, "convened": 19596, "wwii": 25755, "level": 2504, "lay": 3913, "##rly": 21194, "##chi": 5428, "papacy": 25097, "touchdowns": 10183, "amalgamation": 21968, "ecology": 13517, "##lan": 5802, "silk": 6953, "struck": 4930, "rat": 9350, "risked": 22374, "##rsk": 27472, "momentum": 11071, "demand": 5157, "london": 2414, "devoted": 7422, "##orn": 9691, "tehran": 13503, "##oys": 27153, "##factory": 21450, "blinds": 28279, "narrow": 4867, "relied": 13538, "unfortunate": 15140, "##acy": 15719, "heiress": 20020, "tung": 27079, "##zyn": 23749, "grover": 25242, "\u2022": 1528, "kaufman": 23699, "religious": 3412, "convert": 10463, "##zh": 27922, "##zine": 21254, "tracker": 27080, "##ad": 4215, "[unused653]": 658, "##\u209a": 30097, "lounge": 11549, "[unused751]": 756, "membrane": 10804, "streams": 9199, "unicorn": 21830, "saetan": 23515, "finer": 26954, "university": 2118, "##\u06d2": 29846, "assignments": 14799, "confront": 14323, "decreases": 17913, "revolution": 4329, "jimi": 27624, "capitalism": 16498, "zane": 6944, "pembroke": 21457, "1761": 21364, "mirza": 18366, "##ary": 5649, "johnnie": 27716, "mvp": 12041, "scholastic": 24105, "employ": 12666, "##fu": 11263, "[unused924]": 929, "schedule": 6134, "terms": 3408, "\u6b66": 1889, "fisher": 8731, "inherent": 16112, "angular": 16108, "gdp": 14230, "bahn": 17392, "##nesian": 20281, "174": 19492, "glimpse": 12185, "tea": 5572, "anticipation": 11162, "continuation": 13633, "knees": 5042, "##train": 23654, "communications": 4806, "chung": 15972, "##hole": 11484, "beat": 3786, "cabins": 20321, "\u09a5": 1363, "year": 2095, "##att": 19321, "geology": 13404, "refit": 27070, "up": 2039, "dispatch": 18365, ">": 1028, "##kit": 23615, "allegiance": 14588, "cfa": 28125, "glared": 9400, "deliberate": 15063, "appropriate": 6413, "acclaim": 10761, "observer": 9718, "fields": 4249, "detectors": 25971, "blessed": 10190, "morrison": 9959, "heated": 9685, "attributed": 7108, "##m": 2213, "duck": 9457, "slab": 17584, "fisheries": 13424, "stock": 4518, "widow": 7794, "historical": 3439, "winner": 3453, "koch": 15259, "1950": 3925, "edged": 13011, "rays": 9938, "po": 13433, "profiles": 17879, "tray": 11851, "rome": 4199, "##claiming": 27640, "recognition": 5038, "reich": 14365, "uniforms": 11408, "severely": 8949, "##bourg": 20431, "[unused396]": 401, "mongolian": 17855, "resurrection": 15218, "\u677e": 1880, "##\u8c37": 30477, "crews": 10604, "head": 2132, "helix": 25743, "yards": 4210, "juliana": 24157, "pete": 6969, "hawkins": 13835, "barre": 23189, "headquarters": 4075, "prison": 3827, "retiring": 9150, "enrichment": 27226, "[unused105]": 110, "[unused857]": 862, "##sities": 24279, "thrusting": 21468, "veins": 9607, "autumn": 7114, "##olar": 19478, "##xed": 19068, "drip": 27304, "cong": 26478, "petroleum": 11540, "inform": 12367, "##kshi": 27488, "stream": 5460, "calendar": 8094, "rashid": 22080, "sturdy": 23073, "\u5b9a": 1822, "turmoil": 17930, "harmonica": 16527, "baldwin": 10970, "thatcher": 21127, "[unused198]": 203, "peoples": 7243, "##bians": 26376, "shaded": 25273, "[unused576]": 581, "shady": 22824, "slate": 12796, "downing": 22501, "louisiana": 5773, "<": 1026, "fine": 2986, "\u1175": 1483, "parochial": 28773, "##hos": 15006, "darted": 14051, "\u03bc": 1166, "##plication": 21557, "goblin": 22639, "##waite": 29601, "mccormick": 23213, "group": 2177, "nicola": 17388, "##cas": 15671, "[unused888]": 893, "greenland": 16128, "auxiliary": 9830, "psychiatrist": 18146, "something": 2242, "##pon": 26029, "ac": 9353, "##morphism": 19539, "tilt": 17010, "curator": 13023, "rider": 7945, "[unused972]": 977, "iran": 4238, "[unused433]": 438, "[unused437]": 442, "stuffing": 28652, "##bahn": 16052, "burroughs": 25991, "discarded": 15105, "boston": 3731, "kristin": 25130, "purchase": 5309, "##elis": 29282, "ousted": 28368, "sofie": 26359, "[unused246]": 251, "ahead": 3805, "1835": 10150, "humiliation": 21171, "aching": 14750, "bulletin": 13146, "tame": 24763, "[unused104]": 109, "analyzed": 16578, "arlington": 13929, "6000": 25961, "\u4e0d": 1744, "blocked": 8534, "2015": 2325, "moritz": 28461, "[unused500]": 505, "ek": 23969, "marine": 3884, "wessex": 27886, "[unused906]": 911, "aviator": 24035, "baronetcy": 25071, "navarre": 21260, "##rion": 14772, "ankles": 15392, "##logy": 6483, "unmarked": 25779, "seekers": 24071, "guitars": 7334, "tactical": 8608, "swing": 7370, "\u30a3": 1694, "coated": 15026, "##ab": 7875, "icc": 16461, "##quet": 12647, "clade": 21697, "appropriations": 22713, "accompanied": 5642, "tubular": 25147, "hull": 6738, "correspondent": 11370, "402": 28048, "coached": 8868, "[unused31]": 32, "commandant": 15254, "##\u0906": 29848, "detroit": 5626, "disgust": 12721, "humidity": 18213, "restructuring": 18322, "surprising": 11341, "charleston": 10907, "complaints": 10821, "peugeot": 26385, "##body": 23684, "##eem": 21564, "alec": 9752, "##\u2502": 30143, "documenting": 23138, "adversary": 27248, "##chal": 18598, "112": 11176, "module": 11336, "palo": 24326, "plasma": 12123, "depend": 12530, "southbound": 19751, "southward": 22161, "1811": 13086, "drawers": 22497, "edmonton": 10522, "incumbent": 7703, "[unused739]": 744, "plastered": 21832, "191": 19871, "concentrating": 16966, "bleeding": 9524, "fictional": 7214, "usable": 24013, "##ahu": 21463, "oman": 16640, "upgraded": 9725, "commonly": 4141, "transit": 6671, "##lar": 8017, "2021": 25682, "revive": 17995, "1934": 4579, "evaluate": 16157, "##\u0ba9": 29923, "##itude": 18679, "##\u00bf": 29666, "tend": 7166, "flicker": 17909, "youths": 19634, "propellers": 23405, "##go": 3995, "dropped": 3333, "\u68ee": 1882, "##mare": 24376, "circling": 18519, "[unused571]": 576, "storytelling": 20957, "rang": 8369, "saxons": 28267, "pioneers": 13200, "dave": 4913, "warship": 21905, "##ua": 6692, "subconscious": 27952, "sesame": 23605, "##tori": 29469, "northamptonshire": 21367, "midsummer": 28171, "revelation": 11449, "cuba": 7394, "comet": 15699, "penny": 10647, "consultants": 22283, "##felt": 26675, "ioc": 25941, "brunswick": 9192, "##osing": 18606, "breeders": 20823, "[unused229]": 234, "angelina": 23847, "gps": 14658, "seller": 14939, "[unused593]": 598, "expect": 5987, "semi": 4100, "every": 2296, "1861": 6863, "##ively": 14547, "teasing": 12216, "terminus": 7342, "achilles": 23167, "##jic": 25008, "##ard": 4232, "##haven": 14650, "norton": 10770, "binds": 20817, "attacks": 4491, "locus": 25206, "healy": 25706, "carroll": 10767, "extensively": 8077, "widen": 21255, "skating": 10080, "##wife": 19993, "##eh": 11106, "comets": 27138, "meal": 7954, "##vances": 26711, "backed": 6153, "##itor": 15660, "helping": 5094, "7th": 5504, "abstract": 10061, "explicitly": 12045, "warren": 6031, "[unused754]": 759, "psyche": 25774, "##eman": 16704, "##\u2085": 30081, "[unused948]": 953, "substances": 13978, "prostate": 25086, "whip": 11473, "421": 29403, "##bain": 29148, "private": 2797, "\u7530": 1911, "blooded": 26064, "pas": 14674, "trailers": 21389, "##eta": 12928, "mice": 12328, "venue": 6891, "malik": 14360, "obtain": 6855, "##\u044c": 23742, "eighty": 12021, "saline": 28413, "pump": 10216, "##cing": 6129, "cotton": 6557, "below": 2917, "domino": 23968, "[unused940]": 945, "gp": 14246, "steamer": 18027, "wry": 24639, "linguistics": 15397, "carver": 20163, "[unused438]": 443, "henrik": 18745, "[unused887]": 892, "##\u30e1": 30252, "padma": 23731, "data": 2951, "1886": 6929, "satirical": 17251, "troop": 10123, "fuller": 12548, "frequently": 4703, "\u2014": 1517, "worthless": 22692, "bother": 8572, "specializing": 14055, "##\u00b0": 7737, "cipher": 27715, "contemplating": 25247, "\u0430": 1180, "##nsk": 25564, "moshe": 27123, "17th": 5550, "sized": 7451, "translation": 5449, "pumps": 15856, "derrick": 18928, "danish": 5695, "jeep": 14007, "spartak": 28560, "maharaja": 21609, "##jm": 24703, "alarmed": 19260, "##xt": 18413, "p": 1052, "shreveport": 23740, "minors": 18464, "##df": 20952, "economist": 11708, "folded": 6999, "sucking": 13475, "##ty": 3723, "##dran": 24914, "delegate": 11849, "##imeter": 19198, "antwerp": 14003, "forgot": 9471, "beverage": 19645, "campground": 29144, "resemble": 13014, "capita": 8353, "\u09bf": 1379, "resolve": 10663, "##ped": 5669, "elected": 2700, "##erry": 19826, "rbis": 23583, "##sur": 26210, "[unused255]": 260, "ron": 6902, "mergers": 28585, "experiments": 7885, "demonstrates": 16691, "bass": 3321, "recalled": 7383, "observatory": 9970, "renumbered": 27855, "strains": 18859, "band": 2316, "##\u1165": 30008, "comprise": 15821, "##owe": 29385, "replies": 14054, "##itarian": 25691, "159": 18914, "##oi": 10448, "##\u028e": 29701, "upgrades": 18739, "scorpion": 22015, "succumbed": 25642, "cub": 21987, "marina": 9985, "##w": 2860, "##af": 10354, "discouraged": 22585, "mcc": 23680, "psychologist": 15034, "##rled": 27501, "mc": 11338, "recaptured": 23838, "wise": 7968, "##las": 8523, "gt": 14181, "mess": 6752, "avatar": 22128, "almond": 26011, "prisoner": 7267, "##lastic": 28723, "spicy": 25482, "encompassing": 19129, "yates": 20356, "jet": 6892, "supper": 15264, "onward": 15834, "la": 2474, "##cer": 17119, "[unused507]": 512, "\uff09": 1988, "##\u5b80": 30344, "shape": 4338, "crested": 25413, "furious": 9943, "grouping": 19765, "shapiro": 24630, "holy": 4151, "porter": 8716, "andre": 7213, "47th": 28243, "##\u062d": 29820, "##lich": 18337, "civilized": 25825, "nawab": 26543, "telling": 4129, "##ama": 8067, "yue": 27163, "##\u961d": 30496, "calvert": 24800, "molecules": 10737, "labs": 13625, "molded": 27992, "water": 2300, "\u2282": 1610, "[unused59]": 60, "##lp": 14277, "##iy": 28008, "##\u0290": 29702, "##power": 11452, "brandenburg": 16426, "bothered": 11250, "shane": 8683, "###": 29614, "amino": 13096, "warships": 15964, "##eded": 19082, "vest": 17447, "repulsed": 24571, "lynch": 11404, "deserves": 17210, "bel": 19337, "##wall": 9628, "checkpoint": 26520, "content": 4180, "vc": 18315, "##lad": 27266, "cerro": 25498, "##\u306f": 30198, "winslow": 26600, "\u6625": 1867, "[unused491]": 496, "##mple": 23344, "mckinley": 22121, "servers": 14903, "\uff1f": 1994, "adhere": 25276, "##\u04cf": 29765, "fortunes": 18023, "greet": 17021, "binary": 12441, "brilliant": 8235, "dudley": 12648, "##tre": 7913, "maclean": 22528, "palmer": 8809, "jurassic": 19996, "willie": 9893, "\u529b": 1778, "armament": 14410, "##weig": 27204, "##\u05d7": 29794, "cal": 10250, "cold": 3147, "mesopotamia": 25889, "keeps": 7906, "intrigued": 18896, "\u6f22": 1904, "emilio": 18644, "##rew": 15603, "1950s": 4856, "longing": 15752, "garcia": 7439, "universite": 22176, "##\u0142a": 22972, "samsung": 19102, "unstable": 14480, "attempts": 4740, "##\u2ebc": 30159, "kc": 21117, "##valent": 24879, "borders": 6645, "cooking": 8434, "eric": 4388, "##zza": 20715, "cancel": 17542, "instructors": 19922, "##zu": 9759, "melody": 8531, "##cini": 27085, "really": 2428, "economies": 18730, "gig": 15453, "##naire": 20589, "intersect": 29261, "planck": 26486, "visually": 17453, "ph": 6887, "ramsey": 15092, "[unused329]": 334, "clinton": 7207, "not": 2025, "\u571f": 1801, "meet": 3113, "orphans": 21478, "##osa": 8820, "##eron": 26534, "##\u0642": 29834, "425": 23285, "##thing": 20744, "mcqueen": 29265, "barack": 13857, "pleaded": 12254, "ieee": 15368, "course": 2607, "occurrence": 14404, "continuously": 10843, "##deh": 25383, "igor": 14661, "##mania": 27010, "congress": 3519, "elects": 27161, "ray": 4097, "reunification": 28044, "overland": 21400, "##hips": 19801, "engine": 3194, "superhero": 16251, "##sov": 23230, "terra": 14403, "##pid": 23267, "##7": 2581, "fitzgerald": 11864, "slaughter": 14574, "related": 3141, "regina": 12512, "surrey": 9948, "[unused403]": 408, "clandestine": 24450, "recently": 3728, "\u0452": 1211, "event": 2724, "tossing": 15021, "cinematography": 16434, "beamed": 22587, "tiny": 4714, "viscount": 12182, "\u1174": 1482, "##gum": 22850, "##vious": 24918, "arch": 7905, "##ify": 8757, "jedi": 27273, "wheelbase": 29141, "##leen": 24129, "aids": 8387, "switched": 7237, "145": 13741, "##dberg": 25190, "it": 2009, "hines": 25445, "seoul": 10884, "symphony": 6189, "##path": 15069, "impact": 4254, "basque": 13915, "districts": 4733, "##ame": 14074, "extinction": 14446, "office": 2436, "scars": 13521, "1829": 11523, "##tec": 26557, "shook": 3184, "[unused639]": 644, "##efined": 28344, "##bina": 21114, "##ilis": 24411, "luxurious": 20783, "remotely": 19512, "##low": 8261, "favor": 5684, "18th": 4985, "condemn": 28887, "##physical": 23302, "forestry": 13116, "shielded": 25474, "gibbons": 22194, "##+": 29622, "namibia": 15408, "preserves": 18536, "\u0bb0": 1391, "juventus": 22760, "pillars": 13766, "[unused469]": 474, "##quil": 26147, "shaved": 20665, "jonah": 15617, "followers": 8771, "psi": 17816, "hawker": 23937, "ionic": 24774, "greenville": 20967, "prescription": 20422, "##icio": 27113, "##y": 2100, "burns": 7641, "relaxation": 23370, "##bbe": 19473, "##eis": 17580, "lucia": 12337, "monarchy": 12078, "##]": 29636, "bellowed": 27386, "comune": 21130, "stain": 21101, "showcase": 13398, "2007": 2289, "beam": 7504, "##kon": 19648, "blankly": 26344, "isolate": 27152, "cassette": 13903, "##ake": 13808, "shu": 18454, "##erina": 26052, "##oki": 23212, "documentaries": 15693, "kruger": 27823, "tarzan": 24566, "##ulate": 9869, "[unused529]": 534, "##romatic": 23645, "poppy": 19745, "##iam": 25107, "##line": 4179, "ported": 27650, "vilnius": 20513, "##mism": 26725, "##\u0e32": 29958, "like": 2066, "manually": 21118, "bubbles": 17255, "textbook": 16432, "14th": 6400, "##eurs": 26744, "cloudy": 24706, "[unused880]": 885, "crawling": 15927, "costa": 6849, "bien": 29316, "upton": 26900, "\u2122": 1580, "##mah": 25687, "trinidad": 11856, "sky": 3712, "aug": 15476, "countess": 11716, "rustic": 27471, "studied": 3273, "too": 2205, "exit": 6164, "wales": 3575, "##\u3059": 30184, "multiple": 3674, "comfortably": 18579, "##atics": 17592, "branches": 5628, "draw": 4009, "[unused897]": 902, "islam": 7025, "glendale": 27649, "pepper": 11565, "man": 2158, "accepts": 13385, "##\u5fe0": 30378, "teen": 9458, "dub": 12931, "251": 22582, "lithuania": 9838, "pensacola": 26073, "raises": 13275, "stacy": 18566, "clown": 15912, "##sume": 23545, "##dek": 24463, "punishment": 7750, "hank": 9180, "jar": 15723, "pet": 9004, "rural": 3541, "club": 2252, "musicals": 20103, "brackets": 19719, "spill": 14437, "summon": 18654, "rallied": 24356, "archbishop": 6507, "candi": 27467, "suburbs": 9435, "flee": 10574, "hadley": 21681, "##olate": 19425, "initials": 20381, "outer": 6058, "##tm": 21246, "[unused550]": 555, "litigation": 15382, "fabio": 25616, "##lth": 24658, "##hale": 15238, "##shire": 7430, "wanting": 5782, "rally": 8320, "airplane": 13297, "jess": 12245, "##\u5065": 30294, "##yck": 28377, "[unused239]": 244, "inmate": 24467, "meters": 5563, "turret": 14493, "publications": 5523, "tapped": 10410, "\u045a": 1216, "bombardier": 29143, "##isan": 29196, "riding": 5559, "miss": 3335, "hints": 20385, "assuming": 10262, "sponsored": 6485, "hardness": 23608, "##n": 2078, "entire": 2972, "angled": 18756, "marxism": 27255, "pic": 27263, "##sity": 17759, "##ington": 7853, "##\uff5e": 30521, "##sei": 20240, "1908": 5316, "approximate": 15796, "bf": 28939, "dane": 14569, "tubes": 10868, "databases": 17881, "\u7701": 1920, "ambiguous": 20080, "narrowed": 8061, "##gm": 21693, ";": 1025, "susquehanna": 26361, "[unused870]": 875, "##mic": 7712, "figurative": 29407, "\u06a9": 1304, "[unused854]": 859, "hurdle": 27630, "villiers": 25333, "sampled": 18925, "offences": 18421, "\u0289": 1131, "##and": 5685, "##\u0bb5": 29930, "##bari": 25990, "pursue": 7323, "birch": 16421, "greensboro": 27905, "\u672c": 1876, "redding": 26687, "sharp": 4629, "##arus": 29133, "invasions": 23536, "308": 24232, "hearings": 19153, "lough": 29504, "shack": 22200, "unix": 19998, "light": 2422, "tasmanian": 21394, "biomass": 28148, "spraying": 29035, "days": 2420, "##ically": 15004, "mohamed": 14467, "##vus": 27500, "harshly": 21052, "follow": 3582, "credentials": 22496, "neighbouring": 9632, "##holz": 28094, "##net": 7159, "what": 2054, "w": 1059, "caitlin": 27555, "interest": 3037, "helicopter": 7739, "dimension": 9812, "[unused298]": 303, "monde": 23117, "gaunt": 27534, "142": 16087, "goodbye": 9119, "sufi": 21845, "alfred": 6152, "occasions": 6642, "dade": 27647, "wept": 24966, "ledger": 27106, "treasury": 9837, "breaststroke": 28164, "bubba": 19606, "giuseppe": 12574, "roth": 12211, "hazards": 22010, "inhabitants": 4864, "insistent": 29204, "secular": 10644, "prefecture": 7498, "strands": 14119, "ut": 21183, "wants": 4122, "##ape": 24065, "##thesis": 25078, "bergen": 12674, "fungal": 28079, "1624": 28531, "promo": 19430, "##ties": 7368, "laid": 4201, "301": 19123, "animator": 25132, "end": 2203, "clinched": 18311, "##mund": 25574, "1962": 3705, "croatian": 7963, "##pie": 14756, "seven": 2698, "##\u209c": 30099, "dire": 18704, "voodoo": 21768, "##neer": 19755, "erratic": 24122, "edible": 21006, "numerous": 3365, "##hd": 14945, "##ini": 5498, "stench": 21555, "##iman": 18505, "witty": 25591, "brunette": 27261, "fail": 8246, "\u30b3": 1704, "inches": 5282, "vimes": 28482, "histoire": 20088, "derbyshire": 15207, "torn": 7950, "plate": 5127, "amar": 23204, "guo": 22720, "dir": 16101, "emmanuel": 14459, "flair": 22012, "jersey": 3933, "shops": 7340, "[unused371]": 376, "beta": 8247, "##dict": 29201, "cervical": 28711, "wilderness": 9917, "synod": 15374, "##aka": 11905, "tending": 25069, "deafening": 28840, "grimsby": 24470, "##ents": 11187, "retorted": 24056, "wilton": 26407, "beliefs": 9029, "06": 5757, "md": 9108, "large": 2312, "\u1109": 1461, "draft": 4433, "oceania": 20526, "soap": 7815, "spade": 23288, "comte": 19758, "mundane": 24684, "inhibition": 23586, "testimony": 10896, "weapons": 4255, "surfaced": 15791, "naked": 6248, "romanian": 7056, "hugging": 17662, "##ari": 8486, "weed": 17901, "shadowed": 25843, "sonar": 24609, "fronts": 21430, "\u30ea": 1732, "hs": 26236, "phil": 6316, "##pres": 28994, "result": 2765, "sirius": 23466, "wrought": 18481, "\u0621": 1269, "strategically": 23972, "dino": 22412, "florida": 3516, "kramer": 16322, "##bil": 14454, "think": 2228, "faa": 17032, "primarily": 3952, "purdue": 19749, "brick": 5318, "forewings": 13211, "##nary": 24041, "building": 2311, "mobility": 12969, "\u201e": 1525, "\u2202": 1592, "immortality": 20107, "discourage": 28085, "glad": 5580, "##screen": 18182, "##osity": 25949, "reinforcement": 23895, "##puted": 29462, "firm": 3813, "agony": 12812, "##\u09bf": 29915, "exception": 6453, "##dicate": 16467, "\u4e94": 1753, "##wr": 13088, "also": 2036, "humanities": 11406, "empowered": 26480, "##ptic": 20746, "saved": 5552, "disclose": 26056, "bearer": 20905, "captures": 19566, "focusing": 7995, "\u0563": 1221, "\u21c4": 1589, "##ggs": 21314, "##\u00f7": 29669, "apostles": 19178, "baker": 6243, "edit": 10086, "destination": 7688, "freelance": 15919, "cruisers": 16722, "ljubljana": 21588, "tomb": 8136, "##ska": 8337, "fielding": 15452, "##ider": 18688, "minions": 28071, "##\u09aa": 29903, "##rath": 27362, "sherwood": 19427, "[unused25]": 26, "emmett": 25685, "fished": 26281, "territory": 3700, "doctorate": 8972, "##ardo": 24649, "##\u1d62": 19109, "[unused3]": 4, "##nikov": 22576, "constituency": 5540, "edo": 18314, "##champ": 25450, "favourable": 18731, "##als": 9777, "finale": 9599, "marcia": 22548, "stop": 2644, "happiness": 8404, "##\u05e7": 29810, "##aker": 22626, "suck": 11891, "vast": 6565, "##rius": 13245, "##rina": 11796, "gideon": 12137, "winfield": 24739, "reused": 26513, "hearts": 8072, "mandated": 16714, "sheldon": 19369, "[unused51]": 52, "topic": 8476, "##arte": 24847, "bastion": 26829, "lanka": 7252, "cardinal": 7185, "onboard": 27120, "launched": 3390, "shutter": 28180, "[unused590]": 595, "##fers": 24396, "tr": 19817, "##bruck": 28985, "conclude": 16519, "comedy": 4038, "harvard": 5765, "resisted": 13335, "tully": 25724, "lp": 6948, "cartridges": 22998, "##hen": 10222, "##trics": 29392, "rave": 23289, "landscape": 5957, "zodiac": 28501, "expression": 3670, "upstream": 13909, "brianna": 25558, "vocalists": 27478, "\u826f": 1938, "##aking": 15495, "breeze": 9478, "measurements": 11702, "bills": 8236, "quartermaster": 24688, "powers": 4204, "accumulated": 14830, "appointed": 2805, "consultative": 28581, "##lace": 19217, "exquisite": 19401, "brandy": 17951, "composer": 4543, "elements": 3787, "mueller": 26774, "mcgregor": 23023, "truncated": 25449, "cowboy": 11762, "patterns": 7060, "kelley": 19543, "triassic": 29529, "reclaim": 24104, "keeping": 4363, "reduce": 5547, "1810": 11786, "##lves": 20899, "##night": 15864, "aerodrome": 23843, "handling": 8304, "overture": 25052, "wii": 16568, "hindwings": 15998, "##sor": 21748, "della": 8611, "newt": 25597, "annual": 3296, "vatican": 12111, "belgian": 6995, "##oor": 16506, "prevalence": 20272, "glaciers": 21193, "nashville": 8423, "sharply": 9249, "suggested": 4081, "##thic": 23048, "bhp": 22245, "arabia": 9264, "kurdistan": 23627, "sparhawk": 13709, "##print": 16550, "[unused70]": 71, "fleeting": 25085, "##rca": 18992, "lurched": 21977, "chu": 14684, "[unused79]": 80, "installed": 5361, "vida": 19830, "##un": 4609, "window": 3332, "weeping": 19750, "##ryn": 18143, "hub": 9594, "##copic": 26461, "vacant": 10030, "begin": 4088, "intelligence": 4454, "tactic": 19717, "wagons": 14525, "sucked": 8631, "puppet": 13997, "unfolded": 23959, "norms": 17606, "yours": 6737, "lex": 17244, "11th": 6252, "violent": 6355, "soup": 11350, "three": 2093, "aa": 9779, "embarked": 11299, "peninsula": 6000, "jurgen": 23171, "raven": 10000, "bites": 15424, "filmmakers": 16587, "bullock": 25200, "total": 2561, "battleship": 17224, "undertaken": 10607, "comes": 3310, "customized": 28749, "cinematographer": 19245, "gravitational": 19790, "taunton": 28181, "waited": 4741, "routinely": 19974, "kicker": 22652, "automated": 12978, "##sio": 20763, "##lou": 23743, "wallet": 15882, "preacher": 14512, "terror": 7404, "marguerite": 15334, "##athing": 22314, "##bara": 20709, "##uter": 19901, "metadata": 27425, "following": 2206, "mimic": 23150, "rob": 6487, "##anger": 25121, "computing": 9798, "charter": 6111, "##or": 2953, "##nessy": 25441, "bergman": 24544, "monasteries": 15947, "charley": 20430, "susannah": 20471, "##xy": 18037, "adrian": 7918, "##\u0456": 29760, "[unused350]": 355, "frontman": 21597, "benign": 28378, "##\u5bfa": 30353, "holt": 12621, "cn": 27166, "honeymoon": 19227, "estranged": 24211, "\u0932": 1334, "\u98df": 1978, "serge": 21747, "##si": 5332, "shuttle": 10382, "tyre": 21904, "heidi": 21372, "sums": 20571, "spectator": 21027, "##nosis": 27109, "bonfire": 28698, "66": 5764, "##fm": 16715, "##\u110b": 29999, "##isi": 17417, "browser": 16602, "apples": 18108, "communicating": 20888, "creole": 21414, "memoirs": 13251, "authority": 3691, "pablo": 11623, "ser": 14262, "bridgeport": 27986, "speaking": 4092, "atmospheric": 12483, "serials": 28172, "trailing": 12542, "[unused15]": 16, "inaccessible": 29104, "hulk": 16009, "hyderabad": 13624, "[unused169]": 174, "bolton": 12118, "jenks": 15119, "2a": 23409, "[unused849]": 854, "ruins": 8435, "inventor": 12235, "##\u00b4": 29658, "[unused87]": 88, "marian": 14042, "natalie": 10829, "[unused792]": 797, "debates": 14379, "signage": 29404, "knit": 22404, "##\u4ee3": 30286, "ka": 10556, "##meyer": 24344, "runs": 3216, "sidekick": 29240, "tariff": 23234, "\u4e16": 1745, "##hu": 6979, "simulation": 12504, "define": 9375, "lad": 14804, "configured": 26928, "clothes": 4253, "advise": 18012, "longest": 6493, "selected": 3479, "[unused323]": 328, "empty": 4064, "transitional": 17459, "1650": 21875, "examiner": 19684, "1625": 26263, "candace": 22905, "pep": 27233, "conjecture": 22647, "registration": 8819, "forceful": 28552, "vigorously": 22400, "searched": 9022, "colchester": 20115, "kato": 27496, "wendell": 24526, "\u00bd": 1092, "##nds": 18376, "jennie": 27557, "houghton": 21234, "##\u00b5": 29659, "##gated": 11644, "##,": 29623, "costs": 5366, "orphanage": 18504, "colliery": 19462, "lim": 18525, "compliment": 19394, "wilfred": 26026, "compliant": 24577, "philipp": 20765, "pee": 21392, "tones": 12623, "##mond": 11442, "bike": 7997, "scully": 25686, "ulster": 11059, "engineer": 3992, "manifold": 19726, "roach": 20997, "censorship": 15657, "combustion": 16513, "hutchinson": 17165, "atm": 27218, "rift": 16931, "solution": 5576, "belongings": 20033, "central": 2430, "drainage": 11987, "tiberius": 28411, "providence": 11293, "said": 2056, "communicate": 10639, "vamps": 24064, "stiffened": 16090, "\u10dc": 1449, "wait": 3524, "distributor": 16632, "1758": 16832, "spitfire": 28323, "haunting": 20161, "mouthed": 20521, "1016": 28707, "\u116e": 1478, "\u30bf": 1709, "competitions": 6479, "september": 2244, "blanchard": 26870, "cubs": 12469, "evolutionary": 12761, "reduced": 4359, "proficiency": 26293, "enrollment": 10316, "regimental": 17604, "alexandra": 10481, "brewing": 16005, "khan": 4967, "##gative": 26792, "##\u0686": 29840, "38": 4229, "98": 5818, "##ibar": 26656, "routine": 9410, "interesting": 5875, "systematic": 11778, "straightened": 11168, "##gee": 18372, "unemployed": 18787, "mansion": 7330, "privateer": 26790, "slow": 4030, "##zer": 6290, "1885": 6571, "ba": 8670, "pew": 29071, "barry": 6287, "characterization": 23191, "believing": 8929, "collaborative": 12317, "deficiency": 18888, "pairing": 22778, "dorm": 19568, "pastry": 27060, "threatens": 17016, "sustain": 15770, "rampage": 29216, "escort": 8620, "dos": 9998, "##overs": 24302, "\u201d": 1524, "butterfly": 9112, "mlb": 10901, "views": 5328, "fist": 7345, "computed": 24806, "##bba": 22414, "digging": 10443, "##\u0dbd": 29942, "##b": 2497, "dust": 6497, "spaniards": 20999, "149": 17332, "[unused434]": 439, "prophets": 23172, "antibodies": 22931, "fingers": 3093, "##sm": 6491, "rodriguez": 9172, "##66": 28756, "[unused980]": 985, "overlooked": 17092, "##\u0443": 29748, "##tight": 26143, "\u062f": 1278, "victor": 5125, "##sell": 23836, "duane": 27319, "cord": 11601, "[unused770]": 775, "augmented": 19335, "\u2010": 1513, "accuse": 26960, "##ml": 19968, "judah": 23022, "planetary": 17700, "\u767d": 1915, "mile": 3542, "##\u00bb": 29663, "aggregation": 28041, "contractors": 16728, "1989": 2960, "condensed": 25011, "##enburg": 12059, "jail": 7173, "converted": 4991, "canonical": 18562, "##utable": 23056, "tirana": 24631, "##ifer": 23780, "rear": 4373, "superb": 21688, "removing": 9268, "anton": 9865, "mixed": 3816, "reconcile": 21063, "##ich": 7033, "attach": 22476, "remind": 10825, "##ates": 8520, "warden": 13745, "\u0926": 1325, "##loid": 27710, "horrified": 14603, "##-": 29624, "nervously": 12531, "converge": 28314, "xinjiang": 25904, "##jord": 24876, "accomplished": 8885, "inquiries": 27050, "mrs": 3680, "tiles": 13262, "customers": 6304, "rotor": 18929, "videos": 6876, "\u090f": 1314, "bounce": 17523, "##inate": 14776, "##shot": 19040, "530": 23523, "##ennial": 22929, "indicative": 24668, "regents": 22832, "##taff": 22542, "schooner": 21567, "arteries": 28915, "strategy": 5656, "traveled": 6158, "hounds": 27772, "pseudonym": 13881, "reed": 7305, "taluka": 29512, "towed": 18948, "assembly": 3320, "agrarian": 23226, "brad": 8226, "madden": 24890, "scar": 11228, "##rrell": 14069, "##neck": 18278, "[unused413]": 418, "camden": 13267, "gr": 24665, "marc": 7871, "shrugged": 6345, "failed": 3478, "##ica": 5555, "[unused374]": 379, "craven": 21232, "dot": 11089, "wisdom": 9866, "##mx": 22984, "##tain": 18249, "imprint": 15738, "completes": 28123, "440": 17422, "internationally": 7587, "##head": 4974, "screenings": 25437, "##\u0431": 29740, "cancers": 25409, "der": 4315, "realism": 15650, "[unused492]": 497, "certification": 10618, "2002": 2526, "overtook": 28920, "na": 6583, "sierra": 7838, "um": 8529, "beatrice": 14807, "creations": 20677, "granny": 19794, "tor": 17153, "narrowing": 21978, "tornadoes": 22668, "##lid": 21273, "nell": 20970, "swindon": 22350, "wroc\u0142aw": 25160, "crotch": 28629, "cupped": 13740, "educate": 16957, "sat": 2938, "antonio": 4980, "deterioration": 26118, "transcription": 14193, "condoms": 29094, "##ose": 9232, "skipping": 25978, "[unused441]": 446, "\u093f": 1341, "1954": 4051, "afterwards": 5728, "##ga": 3654, "burma": 11050, "bastard": 8444, "chassis": 11832, "defiance": 19674, "troupe": 16017, "corn": 9781, "##bor": 12821, "##th": 2705, "##thed": 23816, "outset": 26674, "##kley": 22315, "deadly": 9252, "scenery": 17363, "flickered": 15999, "chairman": 3472, "nowhere": 7880, "jennifer": 7673, "[unused646]": 651, "brown": 2829, "merrill": 16239, "purge": 24694, "damien": 12587, "vivian": 13801, "nothin": 24218, "##fighting": 22158, "erect": 14908, "seton": 28796, "##gall": 22263, "elbow": 8999, "branding": 16140, "dungeons": 20264, "roche": 20162, "whispered": 3990, "break": 3338, "biographical": 16747, "##mat": 18900, "arkansas": 6751, "bribe": 26470, "describe": 6235, "discharged": 14374, "malley": 25271, "growing": 3652, "stylistic": 24828, "out": 2041, "supplemental": 27024, "karnataka": 12092, "continual": 27222, "redemption": 18434, "##rane": 18053, "quiver": 29049, "startling": 19828, "deepened": 20183, "posting": 14739, "borneo": 15688, "clans": 16411, "minutes": 2781, "city": 2103, "turin": 13667, "wandered": 13289, "adjustable": 26404, "##\u8279": 30465, "cream": 6949, "##ds": 5104, "##erton": 20995, "promoted": 3755, "doubted": 12979, "##ders": 13375, "##ef": 12879, "langdon": 15232, "recognizes": 14600, "##erative": 25284, "middlesbrough": 21655, "gameplay": 11247, "hats": 16717, "##flies": 24019, "contempt": 17152, "migrants": 16836, "reacts": 27325, "forerunner": 23993, "##ners": 16912, "rt": 19387, "##lous": 15534, "##istle": 24242, "arias": 25905, "##\u110a": 29998, "implications": 13494, "answers": 6998, "income": 3318, "sexually": 12581, "orion": 18747, "park": 2380, "deeply": 6171, "##lls": 12718, "genetically": 19345, "##dav": 29045, "in": 1999, "bones": 5944, "docked": 25727, "strode": 11885, "shillings": 29332, "1986": 3069, "[unused623]": 628, "bled": 23919, "1762": 20827, "##raf": 27528, "aside": 4998, "braun": 21909, "rs": 12667, "steals": 15539, "tractor": 16358, "##anov": 25417, "renew": 20687, "effects": 3896, "##lor": 10626, "sri": 5185, "##xious": 25171, "susceptible": 18002, "area": 2181, "##sian": 17043, "anne": 4776, "organism": 15923, "surveillance": 9867, "visa": 9425, "swim": 9880, "1960s": 4120, "botanic": 27761, "2016": 2355, "put": 2404, "##ination": 12758, "##ions": 8496, "##ppel": 27877, "speech": 4613, "##lence": 22717, "nba": 6452, "[unused36]": 37, "atari": 18978, "nehru": 23556, "remains": 3464, "tyne": 17742, "archer": 11024, "\u1106": 1459, "utilities": 16548, "##wer": 13777, "moniker": 21937, "groves": 21695, "flicked": 12777, "flotilla": 17150, "authorities": 4614, "niche": 18111, "##on": 2239, "[unused332]": 337, "clouded": 26761, "barges": 27712, "louisa": 15731, "fury": 8111, "closely": 4876, "perceived": 8690, "rot": 18672, "cameo": 12081, "[unused284]": 289, "employee": 7904, "rack": 14513, "coupling": 19780, "##ris": 6935, "##ptive": 24971, "accessory": 25339, "indicators": 20390, "cello": 10145, "represents": 5836, "scents": 29254, "##lto": 23223, "appointment": 6098, "##itive": 13043, "[unused861]": 866, "holly": 9079, "occasion": 6686, "mouth": 2677, "program": 2565, "fridays": 26587, "luciano": 24512, "appreciated": 12315, "duchy": 11068, "##int": 18447, "juris": 27551, "lew": 24992, "honolulu": 16598, "##gas": 12617, "upside": 14961, "argent": 23157, "##ci": 6895, "inspiration": 7780, "realising": 27504, "differential": 11658, "babylon": 17690, "coaches": 7850, "glory": 8294, "gran": 12604, "leaping": 21216, "periodic": 15861, "virtues": 21560, "[unused80]": 81, "58": 5388, "liza": 20503, "\u0290": 1136, "character": 2839, "retain": 9279, "incredible": 9788, "mainline": 20575, "justify": 16114, "dialogues": 22580, "inn": 7601, "[unused390]": 395, "its": 2049, "\u6771": 1879, "denver": 7573, "wig": 24405, "bali": 20222, "premature": 21371, "ironically": 18527, "##om": 5358, "portugal": 5978, "tissue": 8153, "fugitive": 21329, "starting": 3225, "staffordshire": 17052, "azerbaijan": 8365, "row": 5216, "nice": 3835, "synonym": 10675, "backbone": 21505, "##buch": 25987, "##\u025b": 29275, "monday": 6928, "those": 2216, "transformers": 19081, "bella": 12101, "##zzi": 13793, "connecticut": 6117, "famous": 3297, "rookie": 8305, "ferry": 7115, "belts": 18000, "macintosh": 22228, "perceive": 23084, "[unused106]": 111, "mercantile": 25420, "199": 20713, "kenny": 8888, "encore": 19493, "ie": 29464, "barrel": 8460, "cheated": 22673, "motives": 17108, "roosevelt": 8573, "horton": 18469, "##yen": 20684, "gram": 13250, "biased": 25352, "##back": 5963, "##lind": 27164, "flew": 5520, "mk": 12395, "fraser": 9443, "especially": 2926, "marius": 20032, "##uded": 13936, "##wash": 28556, "depot": 8470, "beloved": 11419, "##cased": 28969, "construction": 2810, "finley": 29194, "servant": 7947, "##ed": 2098, "##enham": 23580, "padre": 28612, "overwhelmed": 13394, "##bar": 8237, "when": 2043, "late": 2397, "islamic": 5499, "punches": 17957, "delays": 14350, "[unused453]": 458, "drying": 17462, "leave": 2681, "shelter": 7713, "##lli": 6894, "find": 2424, "hanover": 14393, "interpret": 17841, "senior": 3026, "1978": 3301, "kazan": 22001, "necessary": 4072, "preaching": 17979, "lamb": 12559, "attic": 14832, "only": 2069, "alligator": 28833, "growled": 8881, "spray": 12509, "indus": 27746, "##mata": 21022, "abdul": 10298, "##frid": 27439, "\u2077": 1541, "topping": 22286, "pm": 7610, "governors": 11141, "\u00b0": 1080, "deleted": 17159, "hitchcock": 19625, "sits": 7719, "violin": 6710, "1788": 15622, "tracks": 3162, "songs": 2774, "sumo": 28193, "collapsing": 22724, "##\u2015": 30053, "bureaucracy": 25934, "scarborough": 18603, "[unused614]": 619, "[unused894]": 899, "honoured": 15546, "summer": 2621, "##ndo": 15482, "parallel": 5903, "polish": 3907, "269": 25717, "buzzing": 20386, "rental": 12635, "]": 1033, "grassland": 20331, "her": 2014, "##tered": 14050, "hayden": 13872, "patna": 29565, "higgins": 13466, "pained": 22295, "marshal": 8610, "##tive": 6024, "##sies": 14625, "##eras": 24140, "diet": 8738, "[unused531]": 536, "blades": 10491, "washed": 8871, "auditioned": 23008, "##aco": 22684, "globally": 16452, "wb": 25610, "##ud": 6784, "##ash": 11823, "chapman": 11526, "tract": 12859, "lopez": 8685, "reception": 7684, "pitt": 15091, "biggest": 5221, "presentations": 18216, "bertha": 25079, "##khov": 25495, "##sfield": 15951, "visiting": 5873, "offs": 12446, "dom": 14383, "whales": 17967, "##\u09b0": 29908, "chef": 10026, "ref": 25416, "devotion": 13347, "supply": 4425, "##elt": 20042, "##nal": 12032, "characteristic": 8281, "meek": 28997, "venezuela": 8326, "[unused232]": 237, "josiah": 24461, "##ium": 5007, "laundry": 14533, "airlift": 20019, "earls": 27371, "##biotic": 26591, "plumbing": 27902, "team": 2136, "vanishing": 24866, "appearances": 3922, "falling": 4634, "saloon": 17078, "differ": 11234, "slovene": 18326, "##very": 27900, "santo": 11685, "##icles": 20921, "##ably": 8231, "sparkled": 28092, "kenji": 25894, "ethanol": 22886, "based": 2241, "vietnam": 5148, "pictures": 4620, "dobson": 27679, "marty": 12578, "1550": 26245, "##ula": 7068, "baking": 21522, "singapore": 5264, "ribbon": 10557, "[unused421]": 426, "packard": 24100, "goran": 28356, "[unused160]": 165, "futures": 17795, "yale": 7996, "##ghi": 28891, "bartender": 15812, "[unused875]": 880, "ir": 20868, "186": 19609, "levine": 17780, "1887": 6837, "[unused860]": 865, "development": 2458, "footprint": 24319, "book": 2338, "[unused898]": 903, "submitted": 7864, "fauna": 15018, "backpack": 13383, "priests": 8656, "##ino": 5740, "##eto": 18903, "##\u3042": 30172, "seeks": 11014, "[unused502]": 507, "1711": 28455, "climb": 7105, "twigs": 27964, "biking": 28899, "##yte": 17250, "##phine": 20738, "mor": 22822, "camilla": 26902, "##rred": 20529, "flinched": 19201, "##lson": 14881, "\u3008": 1637, "rocky": 6857, "encouraging": 11434, "hurley": 25124, "##ange": 22043, "christensen": 24189, "archery": 21383, "merging": 16468, "techniques": 5461, "drawer": 13065, "concourse": 28571, "##\u00f8": 16415, "ministries": 16410, "statues": 11342, "##nese": 14183, "fund": 4636, "asset": 11412, "disturbed": 12491, "campaigning": 18524, "##kell": 18690, "toronto": 4361, "mukherjee": 27040, "agitated": 21568, "nbc": 6788, "va": 12436, "[unused913]": 918, "##well": 4381, "##ellant": 24178, "pun": 26136, "salvation": 12611, "occupy": 11494, "password": 20786, "##haus": 13821, "dealing": 7149, "oboe": 22523, "swam": 16849, "edwin": 10049, "fluttered": 18360, "##wc": 16526, "danube": 16212, "guarantees": 21586, "scripted": 22892, "flashing": 12659, "items": 5167, "clapped": 18310, "##inen": 21820, "cruiser": 10844, "sincere": 18006, "entity": 9178, "manager": 3208, "315": 22904, "##imov": 25299, "showers": 23442, "knelt": 12804, "##ques": 10997, "corridor": 7120, "ngos": 22165, "resist": 9507, "hero": 5394, "[unused527]": 532, "hinges": 25484, "silent": 4333, "extensive": 4866, "[unused559]": 564, "cherokee": 13796, "engineers": 6145, "pajamas": 27621, "##pu": 14289, "payne": 13470, "nic": 27969, "pushed": 3724, "arched": 9194, "flights": 7599, "auditions": 21732, "tun": 27112, "2001": 2541, "garden": 3871, "actions": 4506, "##kei": 29501, "##minated": 26972, "disposal": 13148, "scranton": 26123, "##\u221a": 30127, "fireplace": 13788, "closure": 8503, "credible": 23411, "earning": 7414, "1652": 28853, "devotees": 22707, "howling": 22298, "mathematicians": 29374, "##atory": 14049, "briggs": 15487, "resigning": 24642, "tits": 25671, "cochrane": 22329, "ciudad": 20759, "##dson": 25112, "denominations": 17384, "##inski": 19880, "sanctuary": 8493, "technological": 10660, "beige": 28799, "##class": 26266, "exchanged": 10573, "splinter": 27546, "armoured": 11104, "##using": 18161, "invisible": 8841, "##ground": 16365, "colours": 8604, "perth": 9300, "drew": 3881, "##mmon": 24521, "directors": 5501, "dwellings": 16707, "position": 2597, "ripped": 9157, "karma": 19902, "sandstone": 11694, "forbidden": 10386, "matthias": 17885, "process": 2832, "[unused206]": 211, "italiana": 28059, "raaf": 22709, "facebook": 9130, "migrated": 13447, "##egan": 20307, "uphold": 27329, "apache": 15895, "##ifies": 14144, "frs": 25188, "legal": 3423, "brethren": 17937, "bo": 8945, "##lub": 27959, "sw": 25430, "##tangle": 23395, "forever": 5091, "props": 24387, "hen": 21863, "standings": 11869, "1990s": 4134, "mer": 21442, "cheek": 5048, "righteous": 19556, "predominant": 21047, "##pies": 13046, "invitation": 8468, "##6": 2575, "##pe": 5051, "approximately": 3155, "saints": 6586, "suit": 4848, "##ault": 23505, "drugs": 5850, "dragoons": 28069, "liturgical": 19246, "##aton": 22436, "investigates": 28062, "controller": 11486, "plan": 2933, "[unused193]": 198, "guild": 9054, "\u10e1": 1452, "barracks": 10492, "cho": 16480, "[unused402]": 407, "\u300b": 1640, "traitor": 17328, "mp3": 23378, "nuts": 12264, "possibility": 6061, "tko": 26537, "##mpton": 26793, "churches": 5231, "expected": 3517, "seasons": 3692, "##dy": 5149, "classify": 26268, "diaz": 12526, "##oire": 26250, "playboy": 18286, "tapestry": 25213, "testing": 5604, "##nery": 27415, "unopposed": 17123, "gan": 25957, "gang": 6080, "##corp": 24586, "##lga": 27887, "seminole": 28909, "##ities": 6447, "##rong": 17583, "circles": 7925, "littered": 24777, "mathews": 23287, "##\u099b": 29893, "dull": 10634, "deaf": 12419, "retirement": 5075, "region": 2555, "##iol": 20282, "##placed": 22829, "jerome": 11120, "davy": 23255, "percent": 3867, "rarely": 6524, "readiness": 19822, "[unused113]": 118, "ignited": 22395, "reason": 3114, "comprised": 11539, "rey": 12569, "step": 3357, "##ante": 12956, "treasure": 8813, "stitches": 25343, "planner": 24555, "compelling": 17075, "74": 6356, "editorial": 8368, "caused": 3303, "##jou": 23099, "fai": 26208, "financially": 13732, "referenced": 14964, "\u662d": 1868, "outrage": 19006, "eyeing": 19285, "arrivals": 25470, "principal": 4054, "leases": 29597, "satire": 18312, "ballroom": 14307, "rq": 28134, "fantasy": 5913, "mentioned": 3855, "voluntarily": 17912, "meg": 12669, "zev": 27909, "substantially": 12381, "##riding": 21930, "[unused339]": 344, "105": 8746, "affordable": 15184, "ce": 8292, "pronounced": 8793, "sarcastically": 23800, "jurisprudence": 24697, "portray": 17279, "humanity": 8438, "journeys": 19147, "\u0e1e": 1414, "russell": 5735, "noticeable": 17725, "##yala": 28617, "\u2248": 1606, "eternal": 10721, "##lez": 28060, "sponge": 25742, "iata": 9833, "nowadays": 13367, "die": 3280, "atmosphere": 7224, "##eed": 13089, "blazed": 25590, "physiological": 19389, "jj": 29017, "cafes": 23812, "raging": 17559, "##cci": 14693, "defunct": 11984, "94": 6365, "ashley": 9321, "tunisia": 13437, "aerial": 9682, "unity": 8499, "damaged": 5591, "tian": 23401, "##\u662d": 30394, "fda": 17473, "clit": 17962, "ordained": 9492, "ran": 2743, "tree": 3392, "\u2088": 1555, "chronicles": 11906, "appeals": 9023, "toppled": 27251, "petals": 15829, "trough": 23389, "##proof": 18907, "fiat": 18550, "prequel": 28280, "cooked": 12984, "##eti": 20624, "temperature": 4860, "intend": 13566, "\u539f": 1787, "lack": 3768, "hunters": 9624, "baptised": 28798, "hawaii": 7359, "loose": 6065, "##uni": 19496, "monty": 18446, "risky": 19188, "realises": 25924, "bullshit": 14636, "##mable": 24088, "hum": 14910, "concepts": 8474, "ebony": 27680, "overcoming": 27363, "crippled": 24433, "ceased": 7024, "take": 2202, "875": 27658, "pathways": 16910, "maximize": 25845, "\u6bd4": 1890, "clearance": 14860, "other": 2060, "##x": 2595, "raided": 18784, "b": 1038, "##aria": 10980, "##\u0441": 29747, "calgary": 10112, "willard": 19138, "coward": 16592, "senses": 9456, "frog": 10729, "twins": 8178, "glands": 23340, "\u209b": 1570, "1603": 25625, "dax": 27116, "pastures": 24813, "disregard": 27770, "numbers": 3616, "raising": 6274, "##enity": 20693, "abroad": 6917, "totaling": 21798, "spotting": 27963, "package": 7427, "killings": 16431, "pueblo": 18273, "frame": 4853, "bicycles": 21066, "delightful": 26380, "merchant": 6432, "reveal": 7487, "sabre": 22002, "trousers": 15292, "hp": 6522, "handler": 28213, "depicted": 8212, "##gration": 29397, "neuroscience": 23700, "intuitive": 29202, "tod": 28681, "prosecutors": 19608, "intending": 16533, "\u0679": 1301, "search": 3945, "##see": 19763, "schedules": 20283, "enrolled": 8302, "investments": 10518, "acquaintances": 29409, "reorganisation": 24934, "donor": 15009, "tory": 17117, "##rvis": 29074, "brutally": 23197, "media": 2865, "##\u66f8": 30397, "fixed": 4964, "rotated": 20931, "bee": 10506, "butcher": 14998, "nissan": 16509, "cambridge": 4729, "fame": 4476, "miniature": 12973, "salem": 10389, "sincerely": 25664, "venture": 6957, "diocese": 5801, "obesity": 24552, "copies": 4809, "dove": 10855, "loops": 15932, "fixture": 15083, "d": 1040, "1660": 17954, "efficiently": 18228, "n": 1050, "unused": 15171, "dividing": 16023, "approach": 3921, "outlook": 17680, "##thes": 24138, "clancy": 24530, "malcolm": 8861, "temporal": 15850, "triggered": 13330, "buds": 26734, "weaknesses": 21775, "\u0b9a": 1383, "##\u00a9": 29652, "kathmandu": 28045, "1996": 2727, "tortricidae": 27683, "##arded": 28037, "nantes": 25387, "trillion": 23458, "##\u0627\u0646": 18511, "functioned": 20903, "transportation": 5193, "[unused859]": 864, "steep": 9561, "enable": 9585, "renal": 25125, "sts": 8541, "kathleen": 14559, "sanctions": 17147, "##ropriation": 26121, "goldsmith": 22389, "which": 2029, "academies": 20994, "##lter": 21928, "nexus": 26041, "\u4e45": 1748, "221": 19594, "johannesburg": 15976, "males": 3767, "walsall": 29054, "##pha": 21890, "nur": 27617, "desperately": 9652, "##now": 19779, "clawed": 22544, "warring": 28509, "\u03bd": 1167, "[unused691]": 696, "aggregate": 9572, "dash": 11454, "##ios": 10735, "pristine": 27375, "phylogenetic": 23192, "##lde": 17920, "nominee": 9773, "distinctions": 25995, "knotted": 27039, "##chu": 20760, "##s": 2015, "[unused815]": 820, "marlins": 27055, "##inal": 13290, "[unused561]": 566, "grandmother": 7133, "alpine": 10348, "graeme": 21840, "##schen": 23796, "about": 2055, "genie": 22519, "ronan": 18633, "cbe": 15852, "dal": 17488, "rhea": 24775, "bela": 20252, "folks": 12455, "psychiatric": 13691, "roots": 6147, "sakura": 23066, "dubois": 26258, "dolphins": 13600, "mis": 28616, "barely": 4510, "arc": 8115, "characterized": 7356, "fifteenth": 16249, "\u00bf": 1094, "drown": 19549, "blending": 23293, "apply": 6611, "recruited": 8733, "senators": 10153, "trajectory": 22793, "abuse": 6905, "tragic": 13800, "beforehand": 25828, "intake": 13822, "jerusalem": 6744, "transport": 3665, "santiago": 8728, "##abad": 10542, "##nia": 6200, "biological": 6897, "townsville": 27492, "demise": 13614, "spokane": 21878, "cement": 11297, "nakamura": 23981, "crust": 19116, "refugees": 8711, "texts": 6981, "sport": 4368, "ascribed": 28025, "##cola": 26289, "crossed": 4625, "globalization": 24370, "subdivision": 12572, "##rman": 14515, "alerted": 22333, "demographic": 15982, "##pr": 18098, "main": 2364, "##sive": 12742, "##ju": 9103, "bennett": 8076, "##word": 18351, "confiscated": 17182, "##ag": 8490, "##mos": 15530, "[unused170]": 175, "comment": 7615, "initially": 3322, "destined": 16036, "spatial": 13589, "spoon": 15642, "minerals": 13246, "neighbour": 20065, "sponsor": 10460, "156": 16734, "demos": 18267, "##tres": 19168, "welcoming": 18066, "unmistakable": 24219, "ashby": 28729, "##meral": 28990, "refining": 28596, "625": 22810, "152": 15017, "sided": 11536, "transformation": 8651, "amir": 18904, "whipped": 12428, "\u0f0b": 1424, "olds": 19457, "##chuk": 26516, "##lke": 28143, "blackwell": 18776, "confessions": 21444, "overlapping": 20567, "##uze": 20395, "nodding": 11863, "users": 5198, "pereira": 23857, "chatham": 16727, "uniquely": 20640, "\u00a3": 1069, "mob": 11240, "buildings": 3121, "civilizations": 24784, "chen": 8802, "nouns": 19211, "ness": 23384, "roofed": 26080, "##oge": 23884, "voting": 6830, "[unused57]": 58, "portions": 8810, "implements": 22164, "wallace": 7825, "accusation": 19238, "##ttle": 26328, "rr": 25269, "freshmen": 26612, "burr": 22715, "president": 2343, "[unused879]": 884, "illnesses": 24757, "united": 2142, "##arns": 23549, "##ibly": 17296, "beams": 13110, "unfair": 15571, "diagnostic": 16474, "chuckled": 10252, "tenderly": 26596, "guilty": 5905, "melee": 27868, "vega": 15942, "##chman": 19944, "mercedes": 10793, "##sy": 6508, "attachment": 14449, "maria": 3814, "qualified": 4591, "usd": 13751, "farmhouse": 16870, "##/": 29626, "steps": 4084, "off": 2125, "bethel": 19375, "brains": 14332, "xp": 26726, "conceded": 15848, "##hort": 27794, "##nished": 28357, "alter": 11477, "bandages": 27993, "howell": 18473, "##par": 19362, "##books": 17470, "companions": 11946, "##abas": 27537, "##gano": 29451, "croydon": 21838, "rating": 5790, "disbanded": 8532, "uruguay": 11724, "dwell": 23120, "##oides": 25064, "stevie": 17458, "entrusted": 18011, "yawned": 27626, "shouts": 15701, "##vin": 6371, "precisely": 10785, "1724": 26423, "universidad": 16501, "##llie": 23697, "grouped": 15131, "wiggled": 26750, "birmingham": 6484, "allies": 6956, "businessmen": 17353, "##31": 21486, "##mine": 11233, "eritrea": 26040, "mastering": 11495, "[unused301]": 306, "dragon": 5202, "356": 27509, "quarterback": 9074, "##\u05d9": 29796, "reel": 15934, "lifestyle": 9580, "creeks": 24974, "pairs": 7689, "islamist": 27256, "sequels": 25815, "electricity": 6451, "estonia": 10692, "waistband": 27553, "heinrich": 10952, "macleod": 23075, "evidently": 15329, "[unused872]": 877, "##\u30d8": 30247, "##nge": 15465, "bare": 6436, "legged": 15817, "speedway": 10688, "turnpike": 17116, "jordan": 5207, "\u00a310": 26812, "criticizing": 21289, "##\u092d": 29866, "10th": 6049, "seductive": 23182, "midway": 12213, "sidewalks": 28386, "truck": 4744, "leasing": 26707, "zach": 12397, "ain": 7110, "##\u0e25": 29954, "received": 2363, "armenians": 20337, "rebellious": 22614, "##\u967d": 30499, "nonfiction": 25753, "telangana": 23764, "galilee": 28928, "##centric": 22461, "versa": 18601, "spin": 6714, "kate": 5736, "##ara": 5400, "nude": 15287, "occupations": 23374, "occupying": 13992, "piccolo": 29368, "mistress": 10414, "##lier": 14355, "pupils": 7391, "collaborator": 18843, "exemplified": 28593, "sympathetic": 13026, "parent": 6687, "subsistence": 27667, "audience": 4378, "##pc": 15042, "##ndi": 16089, "aggression": 14974, "##otide": 26601, "march": 2233, "##tia": 10711, "fountain": 9545, "hesse": 16399, "sniffed": 18013, "##\u02bf": 29714, "nk": 25930, "##pa": 4502, "packing": 14743, "stall": 13498, "##sher": 19603, "fc": 4429, "##lizer": 28863, "##\u1161": 30006, "whiskey": 13803, "archibald": 15917, "1910": 4976, "chilly": 24222, "moans": 24675, "carriages": 17744, "facility": 4322, "triple": 6420, "mirrors": 13536, "botany": 17018, "sophie": 8234, "anywhere": 5973, "ecological": 12231, "picked": 3856, "\u00a32": 21853, "hymns": 17777, "prime": 3539, "amassed": 22151, "[unused720]": 725, "sk": 15315, "suicide": 5920, "vegetable": 15415, "##eva": 13331, "hotels": 9275, "tuition": 15413, "threaded": 26583, "resume": 13746, "##\u5927": 30336, "descended": 9287, "fantastic": 10392, "lowell": 15521, "planners": 27155, "clusters": 12906, "system": 2291, "abduction": 23415, "##cos": 13186, "devlin": 24389, "litre": 16812, "greater": 3618, "classroom": 9823, "leadership": 4105, "relaunched": 26391, "beneficial": 15189, "word": 2773, "fischer": 13042, "v": 1058, "experienced": 5281, "gloves": 11875, "##garh": 13484, "blinked": 7948, "agnes": 11166, "##brick": 25646, "budapest": 10926, "\u00a31": 14534, "four": 2176, "installations": 14111, "390": 20024, "##hab": 25459, "##\u3063": 30189, "##\u00df": 19310, "assigned": 4137, "mischief": 25166, "nazareth": 27192, "##ncia": 22750, "howled": 27489, "johan": 13093, "\u897f": 1947, "alternating": 15122, "gubernatorial": 19100, "embryo": 28086, "##lby": 14510, "joseph": 3312, "wives": 10403, "poster": 13082, "##orne": 23846, "peel": 14113, "##a1": 27717, "photographic": 12416, "transform": 10938, "##ya": 3148, "salzburg": 18369, "\u8449": 1943, "##dick": 24066, "ono": 21058, "teammates": 13220, "fork": 9292, "\u0e32": 1422, "##cans": 26642, "engravings": 28611, "petersburg": 8062, "wrestle": 25579, "ich": 22564, "##dai": 21351, "piers": 16067, "shakes": 10854, "##endra": 19524, "galloway": 22372, "##rona": 26788, "dinah": 26562, "squinted": 17425, "##ook": 14659, "##stered": 24167, "##tance": 26897, "legitimacy": 22568, "cousins": 12334, "watered": 27129, "periodically": 18043, "##ness": 2791, "groundbreaking": 23222, "improvised": 19641, "vertex": 19449, "tourists": 9045, "bid": 7226, "42nd": 21373, "breadth": 25291, "cites": 17248, "grey": 4462, "[unused195]": 200, "curvature": 25045, "dora": 21008, "garrett": 9674, "##coming": 18935, "percy": 11312, "chases": 29515, "punishments": 29115, "##gli": 25394, "alcohol": 6544, "argentine": 8511, "cracked": 9630, "dia": 22939, "last": 2197, "trenches": 19874, "##ists": 5130, "[unused234]": 239, "[unused473]": 478, "vibrations": 22755, "overview": 19184, "rehearsals": 24760, "##jet": 15759, "##\u10d9": 29982, "##ilised": 21758, "\u53f8": 1791, "##lian": 15204, "rendering": 14259, "[unused914]": 919, "##lars": 28695, "\u2500": 1615, "pilot": 4405, "##\u30e7": 30256, "criminals": 12290, "lieu": 22470, "glacial": 17381, "melted": 12501, "realms": 18814, "bro": 22953, "buddy": 8937, "raphael": 12551, "classifications": 26739, "dress": 4377, "aachen": 29093, "clench": 26753, "develop": 4503, "antique": 14361, "trainers": 21992, "##yler": 20853, "##gon": 7446, "dow": 23268, "defining": 12854, "detect": 11487, "este": 28517, "syrian": 9042, "simpson": 9304, "clung": 14752, "pts": 19637, "chicks": 20649, "owls": 22388, "##\u05e0": 29803, "pitted": 25895, "coa": 28155, "##bright": 26614, "laser": 9138, "refueling": 23026, "vs": 5443, "campo": 22339, "\u2192": 1585, "perpendicular": 19581, "grab": 6723, "##\u09a3": 29897, "stray": 15926, "want": 2215, "enveloped": 25407, "tuned": 15757, "decade": 5476, "devil": 6548, "dso": 22951, "leapt": 13920, "goodman": 14514, "archeological": 23005, "scraped": 20378, "figure": 3275, "lisa": 7059, "probing": 28664, "ucla": 12389, "##\u11b7": 30023, "stab": 17079, "diplomacy": 17610, "1808": 13040, "populous": 20151, "taunting": 29442, "lviv": 23814, "changes": 3431, "##taken": 25310, "annabelle": 24722, "apollo": 9348, "yet": 2664, "ally": 9698, "macedonia": 11492, "statements": 8635, "celaena": 29252, "##osh": 17369, "walled": 17692, "musica": 21137, "rowe": 20538, "batted": 12822, "debra": 28762, "spaghetti": 26666, "steelers": 15280, "timothy": 10805, "dignitaries": 27960, "drills": 28308, "squared": 19942, "[unused761]": 766, "township": 3545, "once": 2320, "##icated": 17872, "erupted": 12591, "courier": 18092, "seine": 16470, "sullivan": 7624, "ashe": 13402, "rose": 3123, "true": 2995, "performances": 4616, "victory": 3377, "pedro": 7707, "##\u098f": 29887, "##j": 3501, "1902": 5774, "greece": 5483, "drawn": 4567, "unconstitutional": 20454, "unlock": 19829, "zhao": 15634, "ambrose": 15675, "describes": 5577, "litter": 19070, "hairs": 13606, "cale": 21854, "clan": 6338, "fish": 3869, "simeon": 24371, "520": 19611, "scenario": 11967, "destiny": 10461, "##sse": 11393, "##ulu": 20391, "##yed": 20821, "presently": 12825, "valentin": 24632, "1642": 24061, "marta": 18950, "##\u0917": 29853, "massimo": 28080, "parks": 6328, "bracing": 25919, "\u3064": 1664, "visual": 5107, "contexts": 18046, "finch": 16133, "swift": 9170, "possessions": 13689, "kraft": 26680, "trophy": 5384, "locked": 5299, "horne": 24084, "lovers": 10205, "ramsay": 19460, "advertised": 17099, "lick": 15385, "spouse": 18591, "[unused745]": 750, "##\u0f0b": 29960, "im": 10047, "##finger": 20349, "hacked": 28719, "throwing": 6886, "agencies": 6736, "intervening": 26623, "robbery": 13742, "jaw": 5730, "mechanism": 7337, "gujarati": 26428, "literally": 6719, "[unused377]": 382, "48": 4466, "780": 28601, "enactment": 26465, "1700": 16601, "[unused515]": 520, "goals": 3289, "orchards": 22976, "plagued": 17808, "punt": 18975, "##one": 5643, "infections": 15245, "reserves": 8269, "beethoven": 15461, "spacious": 22445, "survives": 13655, "boating": 23639, "nfl": 5088, "cent": 9358, "judges": 6794, "##ap": 9331, "republics": 24822, "gasped": 8535, "1927": 4764, "decorated": 7429, "shortstop": 25359, "embassy": 8408, "flint": 13493, "focal": 15918, "[unused677]": 682, "##nivorous": 29193, "wall": 2813, "masjid": 27779, "[unused752]": 757, "confident": 9657, "##rdy": 17460, "welsh": 6124, "bobbie": 27731, "##tric": 12412, "##rail": 15118, "introductions": 25795, "equipment": 3941, "##sable": 19150, "dirty": 6530, "enforcing": 27455, "[unused688]": 693, "positioning": 19120, "origin": 4761, "duffy": 17971, "fra": 25312, "flying": 3909, "yucatan": 28631, "clint": 16235, "mala": 28935, "torino": 24737, "poles": 10567, "##gb": 18259, "##xing": 19612, "frozen": 7708, "murderers": 28882, "contributes": 16605, "ratings": 8599, "##heard": 26362, "bouncing": 16361, "forested": 15205, "cue": 16091, "##\u2021": 30062, "tna": 20108, "vlad": 19163, "mustered": 21900, "bloomberg": 22950, "disappointing": 15640, "##ise": 5562, "protested": 11456, "1630": 24994, "host": 3677, "louie": 17438, "none": 3904, "retro": 22307, "contracts": 8311, "truths": 23019, "singers": 8453, "whimpered": 26184, "hornet": 26795, "evacuated": 13377, "shut": 3844, "proceeding": 18207, "[unused26]": 27, "cinematic": 21014, "keyboard": 9019, "\u898b": 1948, "gomez": 12791, "hazy": 26710, "##dome": 26173, "##cum": 24894, "handbook": 14812, "protruding": 23868, "breath": 3052, "[unused367]": 372, "neural": 15756, "resin": 24604, "whirled": 17097, "thom": 19438, "jumping": 8660, "viceroy": 19007, "commodities": 21955, "[unused712]": 717, "[unused567]": 572, "cambodian": 24417, "succeeds": 21645, "pumping": 14107, "##yce": 29297, "##dner": 28001, "##mum": 27147, "sebastian": 6417, "winds": 7266, "##ocene": 25793, "airborne": 10519, "rubber": 8903, "tenth": 7891, "pill": 17357, "passions": 25289, "contend": 27481, "migrant": 20731, "embarrassed": 10339, "\u5b80": 1818, "##\u25cf": 30146, "##aire": 14737, "##apes": 29040, "hinduism": 19632, "fines": 21892, "hopkins": 10239, "improving": 9229, "fielder": 25000, "14": 2403, "demo": 9703, "gaa": 19930, "skeletal": 20415, "burger": 15890, "##eus": 10600, "cooperative": 10791, "scottish": 4104, "beautiful": 3376, "lund": 21860, "##gation": 12540, "gerry": 14926, "awkward": 9596, "addicted": 23042, "structures": 5090, "fatigue": 16342, "relaxing": 19613, "academic": 3834, "mcmillan": 27436, "successes": 14152, "\u30ed": 1735, "##lly": 9215, "##ducted": 29510, "rocking": 14934, "wicket": 12937, "##\u0432": 25529, "donnelly": 28317, "abel": 16768, "leak": 17271, "ultimatum": 29227, "needle": 12201, "sinn": 26403, "incidence": 18949, "casa": 14124, "marx": 13518, "294": 28135, "##outh": 17167, "##bin": 8428, "##\u2087": 30083, "250": 5539, "1972": 3285, "palazzo": 18482, "\u2079": 1543, "documented": 8832, "##borg": 11755, "wilmington": 17025, "helplessly": 24942, "substitutes": 29200, "pile": 8632, "##ilde": 23891, "chew": 21271, "##\u2097": 30095, "##zi": 5831, "lush": 16299, "jocelyn": 23786, "ample": 20851, "##tip": 25101, "nebraska": 8506, "auditorium": 11448, "silicon": 13773, "changing": 5278, "astor": 25159, "emancipation": 22656, "stroked": 11699, "improper": 24156, "knowles": 22815, "##\u05df": 29802, "maj": 16686, "reservoirs": 22535, "neighbor": 11429, "##che": 5403, "##\u56db": 30324, "athletics": 6482, "guillaume": 20061, "customary": 16120, "malmo": 23643, "prologue": 18877, "[unused613]": 618, "evolved": 7964, "reductions": 25006, "powerhouse": 24006, "thus": 2947, "gleaming": 18242, "azerbaijani": 18325, "karate": 16894, "chelsea": 9295, "choices": 9804, "christoph": 21428, "annoyed": 11654, "volunteers": 7314, "##\u6625": 30393, "[unused432]": 437, "typing": 22868, "stillness": 29435, "sant": 15548, "prototype": 8773, "tori": 23413, "57th": 28623, "##mina": 22311, "[unused220]": 225, "##\u21cc": 30118, "career": 2476, "##tu": 8525, "qualification": 8263, "ronin": 29249, "1821": 11723, "\u9f8d": 1982, "unmanned": 24075, "[unused109]": 114, "aquatic": 13582, "soaked": 13077, "suppliers": 20141, "fictitious": 23577, "hi": 7632, "diego": 5277, "peck": 18082, "persuade": 13984, "##umatic": 25360, "reliability": 15258, "collapsed": 7798, "multiplayer": 17762, "snort": 26759, "##quent": 15417, "##wang": 16600, "[unused134]": 139, "##\u5149": 30296, "\u2091": 1561, "vomit": 23251, "##\u03bd": 16177, "serene": 25388, "battles": 7465, "retrieval": 26384, "##hop": 18471, "##\u06be": 29844, "heroine": 18869, "lurking": 24261, "sessions": 6521, "\u0916": 1316, "[unused489]": 494, "##strom": 15687, "reservoir": 8071, "##hel": 16001, "sloane": 17558, "##dent": 16454, "##tions": 9285, "progresses": 22901, "braves": 13980, "specialty": 12233, "erasmus": 26809, "history": 2381, "papal": 12156, "betrayal": 14583, "guildford": 26353, "movements": 5750, "narrowly": 11866, "profound": 13769, "##mbo": 13344, "fi": 10882, "prima": 21111, "always": 2467, "rhyme": 20622, "wilhelm": 9070, "trails": 9612, "confederates": 24627, "drop": 4530, "##hini": 20535, "howl": 22912, "fanny": 17813, "##anus": 20849, "santana": 21158, "\u99ac": 1980, "vaudeville": 19698, "foul": 12487, "\u702c": 1905, "giacomo": 22873, "##nnis": 27803, "join": 3693, "afternoons": 24738, "geometridae": 24687, "thrash": 27042, "compressor": 29329, "sin": 8254, "##tsa": 27110, "boxers": 18508, "ochreous": 23474, "375": 18034, "warehouse": 9746, "##dell": 12662, "##orous": 25373, "moment": 2617, "neon": 16231, "hara": 18820, "peripheral": 15965, "disrupted": 20275, "needs": 3791, "operation": 3169, "ship": 2911, "1750": 18171, "centre": 2803, "[unused874]": 879, "infiltrate": 29543, "oddly": 15056, "lucien": 11732, "##u": 2226, "gastropod": 10953, "longer": 2936, "modification": 14080, "japanese": 2887, "##weiler": 22384, "paolo": 14174, "piss": 18138, "##gata": 26589, "breakers": 24742, "peruvian": 15432, "##ppet": 29519, "full": 2440, "signed": 2772, "[unused352]": 357, "diagram": 16403, "sphere": 10336, "treatments": 13441, "##khand": 25910, "anthology": 9637, "##ke": 3489, "intervals": 14025, "maynard": 22130, "branching": 23346, "pain": 3255, "ubiquitous": 28498, "##icide": 21752, "flow": 4834, "sufficiently": 12949, "1830s": 20400, "inspired": 4427, "dishes": 10447, "\u4ee3": 1760, "1964": 3546, "theorists": 28442, "greyish": 26916, "tops": 13284, "##chia": 20881, "baronet": 8693, "##ags": 26454, "ina": 27118, "louise": 8227, "##\u0280": 29693, "##oton": 25862, "\u8a01": 1949, "##sh": 4095, "##ses": 8583, "maybe": 2672, "bulls": 12065, "##yard": 14132, "medicines": 20233, "questioning": 11242, "southend": 26104, "##jon": 14339, "daemon": 12828, "kamal": 21911, "revenue": 6599, "imprisonment": 10219, "##onne": 18256, "murmurs": 22888, "train": 3345, "abu": 8273, "##lok": 29027, "archaeologist": 18821, "unite": 15908, "\u0645": 1295, "stones": 6386, "[unused822]": 827, "duo": 6829, "lombardy": 27728, "prepares": 20776, "timely": 23259, "depiction": 15921, "mecklenburg": 22007, "adjacent": 5516, "directing": 9855, "sausage": 24165, "societal": 23382, "ipa": 24531, "nitrate": 29607, "writes": 7009, "oriented": 8048, "slovenian": 16583, "770": 29065, "##\u4ecb": 30285, "cycling": 9670, "modernism": 27254, "##\u9673": 30498, "caucasian": 23368, "northward": 17192, "cells": 4442, "resided": 12427, "##ets": 8454, "exchequer": 28889, "koppen": 20139, "##pm": 9737, "##rte": 19731, "##lo": 4135, "##\u00b7": 29661, "##\u093e": 29876, "[unused612]": 617, "[unused69]": 70, "arab": 5424, "screened": 12238, "stadion": 20756, "vulnerable": 8211, "22": 2570, "crowded": 10789, "332": 29327, "lester": 14131, "rory": 14285, "heroic": 14779, "descendant": 12608, "friar": 25287, "##rh": 25032, "1929": 4612, "interspersed": 25338, "forte": 24898, "unexpected": 9223, "innocent": 7036, "##lem": 16930, "911": 19989, "##kill": 15872, "[unused217]": 222, "##eil": 24359, "dorchester": 27252, "##ament": 24996, "##vert": 16874, "procedures": 8853, "inherit": 22490, "activate": 20544, "##\u4e00": 30266, "decorate": 29460, "atomic": 9593, "1735": 26063, "##tian": 10772, "peas": 26072, "biennial": 20313, "resolved": 10395, "##lings": 11227, "ira": 11209, "##ured": 12165, "##urgent": 27176, "##rial": 14482, "carbonate": 26427, "environment": 4044, "price": 3976, "properties": 5144, "49th": 25726, "##yev": 17240, "hoped": 5113, "cobalt": 25627, "##tya": 21426, "##hic": 16066, "corners": 8413, "authoritative": 23949, "feral": 18993, "sounding": 9391, "bank": 2924, "uninhabited": 24749, "##ifice": 23664, "[unused471]": 476, "likewise": 10655, "pussy": 22418, "stewart": 5954, "era": 3690, "reasonably": 16286, "asbestos": 29191, "house": 2160, "ville": 20184, "fest": 17037, "mental": 5177, "ripple": 24644, "continuous": 7142, "adjective": 24931, "favorites": 20672, "visitors": 5731, "tentative": 19943, "##\u0435": 15290, "momentary": 29089, "##river": 24352, "immature": 26838, "##rret": 27032, "rubin": 20524, "##optera": 25324, "##amine": 19915, "imminent": 17566, "##tock": 17406, "ptolemy": 23517, "recovering": 13400, "taluk": 23140, "##ks": 5705, "skipper": 23249, "scares": 29421, "##ata": 6790, "[unused257]": 262, "trusting": 19836, "loves": 7459, "destroyed": 3908, "staggered": 14648, "\u4eac": 1755, "ceo": 5766, "\u6728": 1875, "[unused54]": 55, "definitely": 5791, "assumes": 15980, "mammal": 25476, "##mined": 25089, "poised": 22303, "beneath": 4218, "##er": 2121, "ferreira": 26135, "##rut": 22134, "else": 2842, "hokkaido": 20826, "##\u0446": 29751, "spikes": 19547, "forster": 21316, "[unused782]": 787, "eats": 20323, "enslaved": 22216, "beatty": 27305, "picnic": 12695, "##fr": 19699, "fourteenth": 15276, "academics": 15032, "around": 2105, "irrigation": 12442, "[unused47]": 48, "consist": 8676, "##hai": 10932, "##uri": 9496, "##chemical": 15869, "##zuka": 22968, "shout": 11245, "meteorological": 20557, "primaries": 27419, "tightened": 8371, "gunner": 14850, "iraq": 5712, "##kney": 26993, "\u96c4": 1974, "##eck": 11012, "dancing": 5613, "harlem": 14864, "bitch": 7743, "brian": 4422, "contracting": 21012, "exceeded": 14872, "[unused45]": 46, "public": 2270, "bow": 6812, "strengths": 20828, "wingspan": 9635, "muscle": 6740, "reorganized": 14137, "##bot": 18384, "nad": 23233, "##due": 20041, "plumage": 28764, "patrice": 29527, "##utus": 23998, "##rous": 13288, "kali": 19924, "tribe": 5917, "##\u661f": 30392, "pere": 23976, "##bola": 24290, "arbitration": 18010, "eastward": 17318, "reminds": 15537, "##gni": 29076, "multiplied": 28608, "takahashi": 25585, "vice": 3580, "##\u304d": 30178, "modes": 11583, "chow": 20209, "clark": 5215, "sulfur": 17864, "obsolete": 15832, "classrooms": 12463, "##ful": 3993, "[unused841]": 846, "canopy": 14582, "saxophone": 8283, "snapped": 5941, "nepal": 8222, "oversight": 15709, "assists": 8456, "percival": 27832, "dictator": 21237, "flaps": 26570, "##ela": 10581, "horizontally": 23190, "recalls": 17722, "stationed": 8895, "##erly": 12561, "##uet": 23361, "framed": 10366, "##\u6728": 30401, "sundance": 20140, "whatsoever": 18971, "penetrated": 21653, "submission": 12339, "##cot": 24310, "feel": 2514, "variations": 8358, "parties": 4243, "homemade": 25628, "##tti": 6916, "lt": 8318, "paces": 24785, "dexter": 14375, "draught": 25349, "33": 3943, "swiftly": 12128, "hess": 23484, "##yp": 22571, "##uso": 26658, "1889": 6478, "##\u8eca": 30480, "martyr": 17216, "britannia": 24677, "##17": 16576, "##lash": 27067, "faults": 19399, "accounted": 14729, "[unused676]": 681, "fe": 10768, "whereas": 6168, "bodied": 22549, "11": 2340, "ashes": 11289, "110": 7287, "\u056f": 1227, "chaired": 12282, "##dman": 21804, "hilda": 21589, "parameters": 11709, "hk": 22563, "##raphy": 26228, "##uron": 21017, "[unused319]": 324, "km": 2463, "nova": 6846, "##sight": 25807, "cleaner": 20133, "shuffling": 24770, "isaiah": 18850, "##\u0640": 29832, "\u27e8": 1629, "units": 3197, "##\u03b9\u03b1": 27432, "ariel": 16126, "seems": 3849, "stage": 2754, "dauphin": 29102, "##izations": 22318, "##roy": 13238, "coughed": 19055, "fuzzy": 18001, "##star": 14117, "##hia": 12995, "discreet": 29321, "\u02e2": 1152, "##while": 19927, "deprived": 17676, "1772": 17483, "[unused302]": 307, "probably": 2763, "madeleine": 19324, "zoe": 11199, "[unused258]": 263, "##rier": 16252, "chapter": 3127, "started": 2318, "romance": 7472, "graduates": 10845, "##\u6ca2": 30424, "conscription": 26329, "\u062d": 1276, "shrugs": 23822, "rankin": 25772, "norris": 15466, "walters": 19097, "refurbished": 18662, "##wicz": 21355, "\u6ca2": 1898, "feb": 13114, "cy": 22330, "[unused130]": 135, "glide": 21096, "octagonal": 22340, "##nda": 8943, "modulation": 25502, "outfits": 22054, "supermarket": 17006, "##\u79cb": 30455, "dismay": 20006, "##sley": 8002, "forbid": 27206, "raids": 11217, "sweat": 7518, "sirens": 20675, "##ras": 8180, "lithium": 22157, "##ifolia": 29244, "ama": 25933, "[unused250]": 255, "aiming": 13659, "1846": 9244, "##raine": 26456, "restarted": 25606, "pilots": 8221, "conducted": 4146, "reds": 12281, "##arding": 29154, "uttar": 14940, "##\u044d": 29756, "olaf": 20514, "giorgio": 17697, "\u06be": 1307, "[unused648]": 653, "zambia": 15633, "celebrating": 12964, "janet": 9965, "uppsala": 25720, "[unused224]": 229, "pass": 3413, "##graphs": 27341, "enlightenment": 16724, "qualifications": 15644, "knuckles": 13513, "swedish": 4467, "attract": 9958, "[unused221]": 226, "fiba": 13651, "##ncy": 9407, "fate": 6580, "nat": 14085, "illusion": 12492, "frightening": 17115, "laureate": 17656, "##aldi": 24657, "moved": 2333, "##\u1d56": 30040, "dice": 18740, "116": 12904, "scale": 4094, "##\u4e45": 30274, "euros": 19329, "elisabeth": 12877, "yacht": 12187, "filing": 15242, "spins": 23371, "[unused993]": 998, "together": 2362, "anchors": 24674, "ritual": 8887, "ami": 26445, "jokes": 13198, "novi": 21574, "##rou": 22494, "[unused708]": 713, "##lux": 25148, "##nee": 24045, "bart": 12075, "bombing": 8647, "##asse": 27241, "scanning": 13722, "activation": 13791, "##\u0627": 25573, "##mous": 27711, "pinyin": 9973, "vinegar": 29387, "wendy": 12815, "##rey": 15202, "beijing": 7211, "fife": 20537, "cooled": 12981, "1775": 14276, "francois": 8173, "sable": 23492, "italians": 16773, "rooted": 15685, "owe": 12533, "regency": 15647, "forests": 6138, "taxonomy": 25274, "##lie": 8751, "springer": 17481, "time": 2051, "reduction": 7312, "designate": 24414, "##dles": 27822, "output": 6434, "ji": 10147, "promotes": 14067, "callie": 20072, "##ars": 11650, "lunar": 11926, "insulation": 25710, "\u05e9": 1266, "##bet": 20915, "\u30c1": 1710, "seventies": 26232, "[unused99]": 104, "##yin": 25811, "babies": 10834, "joyah": 27098, "precedent": 20056, "##\u5ba3": 30349, "attention": 3086, "runways": 24578, "3": 1017, "bryce": 19757, "3d": 7605, "jeffrey": 10799, "persona": 16115, "few": 2261, "\u208e": 1559, "[unused814]": 819, "adventurous": 29118, "dinners": 29236, "bulldogs": 15120, "scotia": 9676, "questions": 3980, "produces": 7137, "decides": 7288, "eagerly": 17858, "insufficient": 13990, "##\u0e1e": 29950, "chargers": 18649, "coding": 16861, "gamma": 13091, "gulp": 26546, "##\u2098": 30096, "appealing": 16004, "bce": 10705, "##pts": 22798, "motto": 12652, "[unused984]": 989, "schuster": 24253, "pursed": 21954, "patented": 16719, "sikh": 17246, "farrell": 16248, "sussex": 9503, "serum": 20194, "stores": 5324, "##chison": 27795, "1745": 21809, "impacts": 14670, "lighthouse": 10171, "newark": 12948, "outreach": 15641, "sinking": 10186, "firearm": 23646, "erica": 19295, "45": 3429, "tornado": 11352, "kendra": 13812, "connacht": 27062, "showing": 4760, "mysterious": 8075, "##lma": 19145, "blunt": 14969, "##\u10e1": 29988, "##cheon": 28099, "sure": 2469, "grimaced": 19014, "##fan": 15143, "##uf": 16093, "glamour": 22439, "strokes": 13692, "audition": 14597, "het": 21770, "bahadur": 21715, "mccain": 19186, "pacific": 3534, "flynn": 13259, "##orno": 26295, "meteor": 23879, "stride": 18045, "hughes": 8099, "therese": 25598, "groaned": 9655, "concurrently": 15442, "999": 25897, "jeff": 5076, "renovated": 10601, "david": 2585, "##\u5206": 30301, "fenton": 27096, "dukes": 16606, "ventral": 23420, "##\u6cbb": 30426, "surprisingly": 10889, "##chers": 21844, "an": 2019, "dynamite": 21719, "nmi": 22484, "software": 4007, "scoop": 23348, "sen": 12411, "##ibe": 20755, "recommends": 26021, "##ailing": 29544, "commissions": 13239, "apologetic": 29352, "##ensis": 9911, "amtrak": 20208, "##rek": 16816, "##oni": 10698, "inventions": 21644, "##uder": 29190, "barns": 25684, "zion": 19999, "195": 17317, "natalia": 21521, "meaning": 3574, "coldly": 24745, "romans": 10900, "surgeon": 9431, "##worth": 5172, "[unused850]": 855, "\u110b": 1463, "##fleet": 27657, "441": 28015, "mud": 8494, "protesters": 13337, "dennis": 6877, "##tled": 14782, "##lide": 24198, "remember": 3342, "reverted": 16407, "lenin": 17497, "trash": 11669, "276": 25113, "batsman": 13953, "snarl": 24845, "mm": 3461, "chaotic": 19633, "##ythe": 26688, "228": 22238, "indifferent": 24436, "lear": 26511, "sights": 15925, "##tructing": 26310, "marvelous": 28851, "chart": 3673, "##rup": 21531, "##\u30e3": 30254, "swayed": 20122, "thistle": 24328, "##kata": 29123, "reflected": 7686, "sic": 14387, "37th": 23027, "afb": 16909, "dry": 4318, "marquez": 27320, "##\u2248": 30133, "##ided": 14097, "sumatra": 18262, "toyota": 11742, "##hood": 9021, "\u1162": 1471, "fairfax": 17833, "standardized": 16367, "##wire": 20357, "staring": 4582, "gia": 27699, "##arion": 27548, "factual": 25854, "couple": 3232, "boca": 22765, "mathematician": 13235, "population": 2313, "24": 2484, "##ans": 6962, "roughly": 5560, "quest": 8795, "stalk": 23899, "##\u79c0": 30454, "weimar": 20695, "[unused725]": 730, "coordinate": 13530, "##\u3064": 30190, "1827": 12309, "bolivian": 26075, "marcel": 13389, "deadline": 15117, "\u0153": 1107, "com": 4012, "could": 2071, "##ous": 3560, "cam": 11503, "bonaparte": 20830, "chihuahua": 28480, "split": 3975, "foyer": 16683, "umar": 27981, "both": 2119, "twilight": 13132, "##eg": 13910, "whig": 21632, "##mics": 22924, "##lev": 20414, "organize": 10939, "vineyards": 20597, "piazza": 22463, "tracts": 22069, "punching": 19477, "envoy": 19918, "replica": 15059, "144": 14748, "tagged": 26610, "polka": 29499, "proceedings": 8931, "##ched": 7690, "synthesis": 10752, "35th": 20198, "1635": 27426, "anxious": 11480, "bigger": 7046, "burst": 6532, "reactors": 22223, "##sons": 23345, "avid": 18568, "bodily": 20445, "firms": 9786, "orton": 25161, "hearst": 25419, "laude": 21602, "beech": 21760, "organ": 5812, "##\u11b8": 30024, "cables": 15196, "seeing": 3773, "##atter": 20097, "helens": 24074, "##\u3093": 30217, "diva": 25992, "futile": 24495, "subdivided": 15369, "piano": 3682, "[unused678]": 683, "\u0995": 1353, "allegheny": 21192, "complement": 13711, "##\u2083": 11622, "dumped": 14019, "microscopic": 26396, "330": 14210, "catholic": 3234, "determined": 4340, "irritating": 29348, "dina": 26146, "robin": 5863, "tribunal": 12152, "opposition": 4559, "florence": 7701, "across": 2408, "##ude": 12672, "episodes": 4178, "facilitated": 19601, "rattle": 23114, "##roi": 26692, "##aia": 27131, "monterrey": 26843, "##aby": 21275, "declaration": 8170, "##ball": 7384, "lara": 13679, "expeditions": 15014, "wu": 8814, "kochi": 27603, "progressive": 6555, "filtered": 21839, "pour": 10364, "profit": 5618, "laughing": 5870, "notre": 10289, "ecosystems": 20440, "cliff": 7656, "##\u0643": 29835, "thugs": 24106, "nedra": 28240, "##woman": 10169, "lawrence": 5623, "15": 2321, "reissued": 14805, "seize": 15126, "tobias": 16858, "protects": 18227, "eisenhower": 16551, "morning": 2851, "##rro": 18933, "juniper": 29425, "mandatory": 10915, "##worm": 22769, "\u967d": 1973, "malicious": 24391, "malaysian": 11843, "dropping": 7510, "phosphate": 17344, "give": 2507, "authors": 6048, "##ami": 10631, "warn": 11582, "illustrate": 19141, "whenever": 7188, "prowess": 26120, "ranger": 11505, "boiler": 15635, "thriller": 10874, "hygiene": 19548, "##cating": 18252, "##_": 29638, "jackie": 9901, "[unused892]": 897, "analyzing": 20253, "meter": 8316, "##lib": 29521, "permanently": 8642, "trying": 2667, "bernhard": 21432, "declare": 13520, "sichuan": 20980, "cultivated": 13237, "intermediate": 7783, "beetle": 7813, "##ons": 5644, "breakout": 25129, "##shima": 24772, "luton": 17807, "miller": 4679, "drill": 12913, "##ther": 12399, "##tana": 20496, "##tish": 24788, "##\u6bd4": 30416, "gasps": 23813, "diplomatic": 8041, "athletes": 7576, "rappers": 28257, "##shore": 19208, "respond": 6869, "##ental": 21050, "carlson": 22226, "extraction": 14676, "##ados": 28118, "quivering": 26012, "dei": 14866, "injuring": 22736, "reactivated": 28577, "##bs": 5910, "hiram": 27410, "linked": 5799, "lives": 3268, "horns": 11569, "reversal": 23163, "several": 2195, "regent": 11315, "width": 9381, "thrill": 16959, "platform": 4132, "whisper": 7204, "##nally": 26827, "breathless": 16701, "distributing": 20083, "vents": 28287, "%": 1003, "##oro": 14604, "gem": 17070, "##lism": 28235, "ownership": 6095, "\u30c8": 1714, "323": 25392, "[unused956]": 961, "##forms": 22694, "##words": 22104, "jaime": 14519, "expectation": 17626, "dissolved": 8314, "integers": 24028, "musicians": 5389, "cid": 28744, "terrific": 27547, "armored": 10612, "##\u2116": 30106, "obtained": 4663, "##onale": 22823, "comparatively": 20172, "culinary": 20560, "depended": 17292, "05": 5709, "alberto": 12007, "hamlets": 21631, "##skie": 23955, "southport": 27494, "##weed": 18041, "chromosomes": 26874, "christian": 3017, "robbed": 20114, "slightly": 3621, "behaved": 26979, "spend": 5247, "submissions": 27842, "peak": 4672, "conversation": 4512, "ec": 14925, "shatter": 27271, "distinctive": 8200, "glorious": 14013, "header": 20346, "strangled": 21384, "meantime": 12507, "theft": 11933, "zealand": 3414, "gage": 10012, "buffy": 18467, "orbiting": 26472, "[UNK]": 100, "au": 8740, "jamaican": 17851, "mauritius": 18004, "crafted": 19275, "lobster": 27940, "##nology": 21020, "implying": 20242, "##ble": 3468, "##gin": 11528, "modest": 10754, "980": 25195, "rendezvous": 20558, "##oes": 22504, "server": 8241, "##scia": 27210, "huddled": 20258, "unseen": 16100, "period": 2558, "##dal": 9305, "braid": 24148, "emmy": 10096, "thanks": 4283, "association": 2523, "##ited": 17572, "trials": 7012, "defects": 18419, "246": 22376, "byu": 23471, "panic": 6634, "paperwork": 17397, "laundering": 28289, "##ean": 11219, "jul": 21650, "##tsu": 10422, "##hoot": 23416, "unitarian": 25477, "wicked": 10433, "\u0bc8": 1399, "glamorgan": 23861, "\u3089": 1685, "storing": 23977, "compete": 5566, "parasitic": 26045, "ky": 18712, "##iface": 29164, "locals": 10575, "naturalized": 27558, "sacrificed": 20268, "jammu": 21433, "wolverhampton": 20085, "\u3088": 1684, "##z": 2480, "note": 3602, "ballot": 10428, "aisle": 12485, "intrinsic": 23807, "opposes": 29158, "unions": 9209, "demonstrators": 28337, "observers": 14009, "lennon": 14294, "operational": 6515, "arching": 27335, "promote": 5326, "##mbe": 18552, "##pack": 23947, "##with": 24415, "\u4e0b": 1743, "books": 2808, "earrings": 27212, "faded": 8105, "savoy": 16394, "translit": 28468, "##ading": 23782, "flaw": 28450, "##ima": 9581, "klaus": 16536, "positively": 13567, "##frey": 22586, "echoing": 17142, "horrors": 22812, "edna": 21051, "surroundings": 11301, "reflects": 11138, "##uled": 18696, "##mail": 21397, "##\u0915": 29851, "##vac": 24887, "soyuz": 29412, "overboard": 27089, "##cular": 15431, "geographical": 10056, "coincidentally": 27542, "shortened": 12641, "contemplated": 23133, "continuity": 13717, "\u110c": 1464, "rough": 5931, "air": 2250, "chromosome": 16706, "tyres": 24656, "##jin": 14642, "gills": 29468, "occur": 5258, "albeit": 12167, "empathy": 26452, "malabar": 28785, "taiwan": 6629, "players": 2867, "pertaining": 20246, "cao": 12966, "\u0927": 1326, "cellar": 15423, "hendrix": 20645, "##cton": 28312, "hired": 5086, "pakistan": 4501, "tracy": 10555, "##eno": 16515, "limit": 5787, "##ele": 12260, "nestor": 25397, "##\u30a6": 30222, "ligament": 25641, "thought": 2245, "mps": 12616, "1999": 2639, "##lice": 13231, "##game": 16650, "##yson": 25385, "combine": 11506, "senate": 4001, "ring": 3614, "##aa": 11057, "corresponding": 7978, "shopping": 6023, "virtue": 11870, "contiguous": 25177, "ladder": 10535, "\u5d0e": 1834, "locker": 12625, "kat": 10645, "persuasion": 27577, "##eak": 25508, "stabilization": 28715, "posters": 14921, "guess": 3984, "moaned": 12557, "murphy": 7104, "##vary": 21639, "subtropical": 11935, "##\u1d50": 30038, "[unused555]": 560, "alumni": 9441, "nobles": 13969, "1914": 4554, "gauge": 7633, "little": 2210, "grandfather": 5615, "glued": 22805, "[unused716]": 721, "robertson": 9923, "joshua": 9122, "##board": 6277, "winter": 3467, "papa": 13008, "fails": 11896, "[unused50]": 51, "hurried": 9520, "\u7ae0": 1932, "##rma": 17830, "element": 5783, "groceries": 26298, "test": 3231, "wyatt": 12986, "1841": 9840, "##cap": 17695, "\u09b6": 1374, "##\u53e4": 30315, "##zle": 29247, "##\u0576": 29778, "spectacular": 12656, "##\u2218": 30126, "clearing": 8430, "royals": 15426, "films": 3152, "beers": 18007, "##made": 21565, "\u207b": 1545, "##\u093f": 29877, "disks": 23999, "##gua": 19696, "##yas": 16303, "chased": 13303, "chuckles": 26088, "marley": 20326, "panties": 12095, "undone": 25757, "universal": 5415, "promised": 5763, "situated": 4350, "\u3066": 1665, "stating": 5517, "montana": 8124, "contact": 3967, "fight": 2954, "islander": 12544, "month": 3204, "224": 19711, "paulo": 9094, "##nsen": 29428, "##\u30de": 30249, "itv": 11858, "joanne": 23459, "eclipse": 13232, "staggering": 26233, "##folk": 29284, "295": 21679, "engraved": 16328, "another": 2178, "healthy": 7965, "1879": 7449, "footprints": 24629, "1658": 28944, "bard": 22759, "ku": 13970, "havana": 15278, "sparks": 12300, "medal": 3101, "listings": 26213, "nasty": 11808, "eccentric": 18080, "##nes": 5267, "influence": 3747, "radius": 12177, "patsy": 25382, "[unused700]": 705, "philanthropist": 15246, "dancer": 8033, "federico": 20493, "cadiz": 26342, "##tp": 25856, "ok": 7929, "tensor": 23435, "monastery": 6408, "hilt": 21184, "bolivia": 11645, "##rat": 8609, "ascension": 18071, "##coat": 16531, "wembley": 16538, "guido": 20239, "endowment": 15108, "##aea": 21996, "[unused628]": 633, "irene": 12855, "dublin": 5772, "##psis": 18409, "\u0250": 1109, "killers": 15978, "vila": 23840, "1765": 20797, "conservation": 5680, "unaffected": 24720, "chopra": 28826, "violence": 4808, "ellis": 8547, "duff": 21019, "yong": 18999, "nearer": 20388, "leaks": 29324, "malice": 28238, "fidelity": 22625, "mu": 14163, "##an": 2319, "blackened": 25788, "humphrey": 15462, "kitchen": 3829, "leighton": 26873, "notion": 9366, "\u91cc": 1962, "rated": 6758, "socialism": 14649, "ann": 5754, "humorous": 14742, "investors": 9387, "##sky": 5874, "##\u300b": 30166, "\u266f": 1628, "136": 15407, "charles": 2798, "amin": 24432, "##rdi": 17080, "commentators": 15957, "##otted": 26174, "settlements": 7617, "tasked": 13487, "siren": 19558, "fills": 17469, "##him": 14341, "##ulf": 21007, "##ark": 17007, "[unused585]": 590, "\u014b": 1106, "rejoined": 14311, "whaling": 23687, "##as": 3022, "glen": 8904, "doctoral": 11316, "lightning": 7407, "morales": 17103, "ominous": 23504, "carmel": 19443, "sited": 28603, "##\u9593": 30495, "monastic": 17361, "##\u03c8": 29738, "##\u3089": 30211, "metaphysical": 29081, "mason": 6701, "nationalism": 14594, "dedication": 12276, "israeli": 5611, "##\u6238": 30383, "[unused771]": 776, "wainwright": 25305, "ari": 10488, "carole": 24348, "reassuring": 21093, "hourly": 21462, "oxfordshire": 20124, "##rp": 14536, "cavalier": 28778, "someday": 13834, "tamara": 21772, "shone": 14707, "healing": 8907, "webster": 11635, "models": 4275, "verified": 20119, "footsteps": 9717, "hunger": 9012, "##works": 9316, "laboratories": 12030, "##ment": 3672, "accomplish": 14570, "bernardo": 21175, "##ek": 5937, "ld": 25510, "##lea": 19738, "inconsistent": 20316, "ape": 23957, "myra": 23020, "sikhs": 26697, "scout": 7464, "1600": 14883, "odyssey": 18735, "was": 2001, "tear": 7697, "illicit": 25049, "susan": 6294, "hurting": 11878, "vowel": 12710, "deutschland": 28668, "won": 2180, "1842": 10008, "remarked": 10783, "##note": 22074, "kingdom": 2983, "risen": 13763, "vintage": 13528, "##pire": 20781, "assistants": 16838, "bowing": 26690, "ib": 21307, "rico": 7043, "intern": 25204, "146": 16333, "proven": 10003, "##phate": 24556, "skirts": 18184, "##ations": 10708, "medalist": 12968, "daughters": 5727, "revolving": 24135, "file": 5371, "[unused115]": 120, "mobilization": 25580, "prejudice": 18024, "##izan": 27334, "urge": 9075, "nike": 18368, "attaining": 26615, "steadily": 11328, "pub": 9047, "mavericks": 28330, "forks": 19896, "antigua": 26023, "stanford": 8422, "awards": 2982, "freaked": 22783, "ti": 14841, "dispersal": 27602, "##ators": 18926, "melt": 14899, "##lun": 26896, "typically": 4050, "[unused992]": 997, "475": 28245, "gus": 12670, "##ayo": 28852, "##aver": 22208, "heterosexual": 28229, "bearing": 7682, "[unused757]": 762, "palette": 27396, "thankful": 18836, "##ss": 4757, "fuselage": 13478, "recreation": 8640, "lyon": 10241, "albert": 4789, "##edes": 18352, "##\u043e\u0432\u0438\u0447": 16198, "equator": 26640, "ecuador": 10378, "biodiversity": 17194, "prelude": 19508, "304": 23859, "revolutionaries": 24517, "awareness": 7073, "57": 5401, "##iv": 12848, "commonplace": 27550, "endured": 16753, "locality": 10246, "residents": 3901, "rivers": 5485, "stimulus": 19220, "snarled": 15022, "[unused797]": 802, "shortest": 20047, "lining": 14834, "[unused415]": 420, "lev": 23310, "##urbed": 29595, "##\u0444": 29749, "[unused241]": 246, "##cia": 7405, "governor": 3099, "1946": 3918, "panting": 15601, "airfield": 9087, "##kas": 13716, "mead": 19855, "offered": 3253, "##uming": 24270, "##lam": 10278, "##\u09a6": 29900, "barking": 19372, "shove": 14738, "posthumous": 19086, "sandwiches": 22094, "salman": 28542, "\u2207": 1595, "29": 2756, "guessing": 16986, "cups": 10268, "bavarian": 15097, "ill": 5665, "grammar": 8035, "teaches": 12011, "##\u30f3": 30263, "##sper": 17668, "expeditionary": 15372, "desert": 5532, "maternity": 23676, "jesuits": 20297, "terminology": 18444, "##hone": 27406, "nm": 13221, "ashland": 24346, "economically": 15318, "stafford": 15064, "##tist": 16774, "networking": 14048, "precious": 9062, "##udi": 21041, "leaving": 2975, "\u0447": 1202, "shares": 6661, "##\u30a8": 30224, "intimacy": 20893, "##aly": 20766, "intently": 16170, "##gly": 25643, "popularity": 6217, "[unused35]": 36, "non": 2512, "partisans": 20762, "tom": 3419, "recover": 8980, "organisations": 8593, "dieter": 27976, "penalties": 12408, "replaces": 20736, "hires": 28208, "chiefs": 9058, "poetic": 13805, "devoid": 22808, "y": 1061, "##ra": 2527, "admired": 12749, "dowager": 20508, "##agne": 25440, "2019": 10476, "eton": 21687, "freshwater": 12573, "goodwin": 19928, "homogeneous": 24854, "seasoned": 28223, "penthouse": 22855, "crypt": 19888, "celebrations": 12035, "\u03c2": 1172, "\u09a6": 1364, "##witz": 15362, "##mbs": 29232, "clothing": 5929, "##phus": 25255, "apparatus": 14709, "pose": 13382, "##\u0909": 29849, "arrondissement": 20522, "evangelical": 11295, "rf": 21792, "dynasty": 5321, "commercials": 12698, "devout": 26092, "freshly": 20229, "stops": 6762, "swords": 10689, "##32": 16703, "lego": 23853, "susie": 23917, "[unused584]": 589, "deposits": 10042, "##chment": 22729, "1812": 9842, "insane": 9577, "softened": 16573, "audi": 20075, "improvisation": 24584, "translate": 17637, "chilling": 27017, "accident": 4926, "\u02b0": 1140, "[unused568]": 573, "editing": 9260, "##name": 18442, "nigerian": 11884, "##oper": 25918, "oneself": 25763, "outstanding": 5151, "messina": 27270, "miners": 11257, "##mble": 19661, "champion": 3410, "gov": 18079, "leans": 12671, "mph": 5601, "britney": 29168, "coloring": 22276, "tianjin": 26216, "tank": 4951, "truth": 3606, "stress": 6911, "junk": 18015, "car": 2482, "delle": 24121, "particular": 3327, "##edly": 26207, "##gat": 20697, "[unused273]": 278, "##hunter": 25629, "ethical": 12962, "eroded": 23300, "antony": 16262, "[unused431]": 436, "##lain": 15987, "[unused342]": 347, "1928": 4662, "##et": 3388, "intercollegiate": 21587, "tent": 9311, "neumann": 22860, "rite": 14034, "##stadt": 21543, "neal": 11030, "narrative": 7984, "\u00a7": 1073, "`": 1036, "263": 25246, "##nr": 16118, "recall": 9131, "consonant": 18265, "##yn": 6038, "ks": 29535, "338": 27908, "vis": 25292, "##ick": 6799, "##lwyn": 29287, "##cheng": 21043, "[unused949]": 954, "participating": 8019, "aforementioned": 17289, "##ssa": 11488, "transatlantic": 26617, "ideally": 28946, "chances": 9592, "##bai": 26068, "convinced": 6427, "redesignated": 11836, "tucked": 9332, "perfectly": 6669, "##cco": 21408, "##gl": 23296, "[unused262]": 267, "##dong": 17679, "cues": 23391, "influencing": 25870, "guys": 4364, "misty": 15167, "##cz": 27966, "[unused56]": 57, "##vil": 14762, "##hoe": 14490, "stephens": 15037, "inexperienced": 26252, "lai": 21110, "##ust": 19966, "civic": 8388, "gnome": 25781, "wheels": 7787, "swinging": 11820, "##sty": 21756, "[unused710]": 715, "revisited": 24354, "flames": 7311, "queue": 24240, "rebounds": 11049, "eventually": 2776, "bologna": 14102, "\u05dd": 1254, "junctions": 27169, "treason": 14712, "rattling": 26347, "outdated": 25963, "##io": 3695, "usc": 15529, "penetrate": 19136, "##\u30ca": 30241, "copper": 6967, "##clops": 28659, "43rd": 25747, "raiders": 10642, "common": 2691, "anomaly": 28685, "##\u30b1": 30229, "altogether": 10462, "magnetic": 8060, "##acion": 21736, "747": 25374, "cottages": 18918, "voices": 5755, "currie": 20667, "kyushu": 25885, "duke": 3804, "pigment": 28815, "redskins": 17461, "soviet": 3354, "inhuman": 29582, "wigan": 15598, "##ishing": 21837, "protests": 8090, "##watch": 18866, "herald": 9536, "overhaul": 18181, "felicia": 27579, "\u116f": 1479, "councils": 10784, "mach": 24532, "##ehan": 24660, "smaller": 3760, "sylvie": 26009, "\u0936": 1336, "\u0627": 1270, "##}": 29642, "product": 4031, "sermons": 20855, "taxonomic": 27691, "cuffs": 24347, "huddersfield": 19715, "strategic": 6143, "##rl": 12190, "##tma": 29418, "react": 10509, "merge": 13590, "washing": 12699, "##balls": 18510, "##lit": 15909, "knocked": 6573, "seats": 4272, "[unused362]": 367, "industries": 6088, "crosby": 14282, "holloway": 20977, "##sc": 11020, "designation": 8259, "fbi": 8495, "##cure": 23887, "##gp": 21600, "##arth": 22425, "enthusiastically": 24935, "everyone": 3071, "pitchers": 23232, "pontiac": 24538, "repression": 22422, "##roud": 21332, "intensified": 15767, "portuguese": 5077, "writers": 4898, "liberties": 18271, "accessed": 11570, "tokyo": 5522, "ewing": 24023, "pork": 15960, "##ulated": 8898, "##nall": 22270, "mid": 3054, "transparent": 13338, "israelis": 28363, "##tique": 28437, "##20": 11387, "astonishment": 23819, "caledonia": 19305, "holiness": 27692, "russo": 17023, "faintly": 18587, "##osi": 20049, "sublime": 28341, "freyja": 7075, "coventry": 13613, "holden": 9988, "suspend": 28324, "##anda": 13832, "junior": 3502, "distorted": 19112, "confined": 12302, "##icia": 24108, "watkins": 17055, "wurttemberg": 16346, "bulgaria": 8063, "mayo": 14415, "fargo": 23054, "ages": 5535, "##hler": 13620, "bai": 21790, "scaling": 25169, "greedy": 20505, "siegfried": 25948, "today": 2651, "dolores": 21544, "stipulated": 25729, "itself": 2993, "##uda": 14066, "[unused417]": 422, "##\u301c": 30171, "accordingly": 11914, "manor": 6952, "served": 2366, "vessels": 6470, "fog": 9666, "versus": 6431, "championships": 3219, "\u5b97": 1821, "arithmetic": 20204, "richardson": 9482, "##\u300e": 30169, "dorsey": 27332, "##nor": 12131, "baird": 20866, "##sburg": 9695, "[unused344]": 349, "cries": 12842, "electors": 19165, "arterial": 25543, "[unused553]": 558, "jae": 22770, "relieved": 7653, "1916": 4947, "influential": 6383, "saber": 25653, "disappearing": 14489, "contained": 4838, "guerre": 24613, "flood": 7186, "supplement": 12448, "ear": 4540, "claiming": 6815, "floats": 24885, "##yah": 17560, "nope": 16780, "nurses": 11500, "galileo": 21514, "liaison": 14975, "advances": 9849, "##56": 26976, "##main": 24238, "lydia": 14076, "gatherings": 21403, "womb": 26578, "posterior": 15219, "biography": 8308, "##53": 22275, "stimulated": 25194, "restraint": 19355, "##station": 20100, "fiji": 11464, "links": 6971, "##gang": 24930, "gb": 16351, "##hly": 27732, "\u1da0": 1512, "##dou": 26797, "##glio": 29480, "dresden": 12983, "1763": 18432, "tyson": 19356, "ensemble": 7241, "##ammed": 27479, "crazy": 4689, "\u30ce": 1717, "cai": 29080, "hayes": 10192, "invariably": 26597, "settler": 18556, "aroused": 18391, "[unused562]": 567, "##duced": 28901, "attracts": 17771, "##to": 3406, "douglass": 27485, "campeonato": 17675, "caps": 9700, "##ior": 25346, "beds": 9705, "retracted": 28214, "proprietor": 21584, "##tory": 7062, "brody": 19631, "##fying": 14116, "##\u539f": 30313, "creamy": 24519, "chips": 11772, "gleamed": 25224, "suffix": 16809, "##eses": 23072, "arranger": 13981, "ships": 3719, "[unused696]": 701, "projections": 21796, "nunez": 28454, "importantly": 14780, "##nas": 11649, "officials": 4584, "ripley": 25231, "fraction": 12884, "decisive": 13079, "slayer": 20005, "power": 2373, "widened": 8723, "zee": 23727, "cosmetic": 25536, "##\u25a0": 30144, "##\u8a01": 30475, "fox": 4419, "eng": 25540, "\u0b95": 1382, "[unused517]": 522, "methodist": 8938, "scarf": 18982, "[unused254]": 259, "kit": 8934, "topography": 21535, "asphalt": 16295, "\u03b3": 1157, "fairs": 21947, "biotechnology": 20353, "feathers": 12261, "decorations": 14529, "##rok": 27923, "mori": 22993, "##cks": 10603, "##rgeon": 28242, "assemble": 21365, "##\u7acb": 30457, "handball": 12378, "generation": 4245, "710": 27671, "marche": 28791, "##ry": 2854, "disbelief": 12537, "sedimentary": 25503, "theoretical": 9373, "##dam": 17130, "patton": 18090, "gillespie": 21067, "generations": 8213, "##abe": 16336, "torah": 16297, "mounds": 19503, "##tel": 9834, "\u6238": 1857, "pricing": 20874, "microwave": 18302, "gough": 29124, "erik": 10240, "distinction": 7835, "existence": 4598, "bowling": 9116, "stirring": 18385, "use": 2224, "seth": 6662, "considerations": 16852, "storylines": 22628, "##static": 16677, "comprises": 8681, "appetite": 18923, "mentoring": 29192, "##\u10dd": 29986, "maccabi": 24055, "transgender": 16824, "upper": 3356, "amour": 21518, "celtic": 8730, "istanbul": 9960, "biochemistry": 22419, "##\u308c": 30214, "1957": 3890, "painful": 9145, "clive": 14675, "texans": 23246, "harmed": 25596, "55": 4583, "gardner": 11764, "##keeping": 18321, "\u044a": 1205, "1871": 7428, "appliances": 22449, "munitions": 21061, "oral": 8700, "[unused726]": 731, "transmissions": 21670, "\u300e": 1643, "dye": 18554, "clocks": 20940, "950": 20317, "locating": 26339, "five": 2274, "bottled": 26071, "victim": 6778, "outgoing": 22011, "##ys": 7274, "##ran": 5521, "difficulties": 8190, "tasmania": 12343, "##cb": 27421, "ve": 2310, "astronomy": 12799, "##ieg": 28872, "judicial": 8268, "[unused660]": 665, "##graph": 14413, "##tea": 27058, "resentment": 20234, "##og": 8649, "highlanders": 22672, "seriously": 5667, "##athan": 29246, "minh": 19538, "##islav": 19834, "terri": 26568, "clutching": 14197, "stepfather": 21481, "earthly": 29520, "340": 16029, "frightened": 10363, "critically": 11321, "afro": 17694, "##face": 12172, "##ulator": 20350, "20th": 3983, "australians": 15739, "##oja": 22918, "anhalt": 27088, "clutches": 29497, "ignorance": 18173, "tanks": 7286, "##jiang": 21786, "##mento": 23065, "[unused917]": 922, "remembers": 17749, "seater": 23392, "133": 14506, "airspace": 29357, "damn": 4365, "delicate": 10059, "jude": 12582, "leisure": 12257, "abducted": 20361, "fling": 27655, "\u0ba4": 1385, "dare": 8108, "people": 2111, "network": 2897, "gael": 28151, "moreno": 17921, "talented": 10904, "##oca": 24755, "##yme": 25219, "northbound": 20055, "##rooms": 29020, "asleep": 6680, "mayer": 14687, "timmy": 27217, "thrilling": 26162, "nose": 4451, "cocktail": 18901, "##zano": 24147, "conditioned": 22442, "preparations": 12929, "[unused275]": 280, "##lding": 24573, "esther": 14631, "yesterday": 7483, "##lder": 16502, "runners": 7190, "competed": 3879, "oldest": 4587, "testosterone": 25937, "umbrella": 12977, "[unused114]": 119, "drawings": 9254, "vacancy": 15619, "deux": 24756, "flanders": 13998, "exceptions": 11790, "##entation": 19304, "manny": 16320, "sandwich": 11642, "detectives": 18145, "enemies": 6716, "patterned": 25336, "##\u4eac": 30281, "##roid": 22943, "preference": 12157, "flared": 14937, "1718": 26995, "comparing": 13599, "illumination": 21203, "stretch": 7683, "associations": 8924, "1983": 3172, "##puri": 24661, "9": 1023, "adjustments": 24081, "hartley": 20955, "\u043e": 1193, "##cated": 12921, "doi": 9193, "casimir": 24701, "mall": 6670, "scan": 13594, "seasonal": 12348, "vance": 16672, "guernsey": 24640, "##hma": 22444, "without": 2302, "sabbath": 19546, "diaries": 18707, "mortimer": 17416, "##uto": 16161, "##\u305b": 30185, "[unused481]": 486, "cried": 6639, "subgenus": 25356, "ff": 21461, "exploitation": 14427, "answered": 4660, "odin": 26195, "\u1d63": 1508, "locomotive": 8098, "prints": 11204, "##uke": 15851, "1695": 29140, "wetland": 22217, "brewery": 12161, "joker": 19318, "\u0431": 1181, "lunch": 6265, "covenant": 16077, "1937": 4347, "thor": 15321, "kn": 14161, "rutland": 27780, "caleb": 10185, "retaining": 12823, "aaa": 13360, "dashed": 18198, "basel": 14040, "sammy": 14450, "useful": 6179, "indicates": 7127, "cum": 13988, "prosperous": 18241, "##stein": 8602, "saskatchewan": 10068, "outraged": 23558, "##ako": 20411, "peabody": 20004, "bangladesh": 7269, "\u30c6": 1713, "##bank": 9299, "293": 26953, "roast": 25043, "scarlet": 11862, "620": 23612, "1924": 4814, "saxon": 10038, "##nza": 16786, "goats": 17977, "ambient": 17093, "##rem": 28578, "##\u30aa": 30225, "cases": 3572, "##estinal": 19126, "muddy": 15405, "sumner": 23922, "decided": 2787, "conical": 24750, "##giving": 23795, "desirable": 16166, "cairo": 11096, "fabrication": 25884, "nanny": 19174, "\u8eca": 1954, "##mm": 7382, "##\u30fb": 30264, "copied": 15826, "disgusting": 19424, "##kar": 6673, "intelligent": 9414, "many": 2116, "\u2020": 1526, "lifeless": 22185, "alfa": 22989, "wires": 14666, "\u624b": 1858, "##avs": 29553, "bears": 6468, "maui": 28566, "convoys": 23083, "somber": 28587, "\u03b9": 1163, "hoping": 5327, "warmed": 17336, "gerard": 11063, "petit": 17268, "benz": 17770, "\u77f3": 1922, "unbelievable": 23653, "mel": 11463, "jars": 25067, "eli": 12005, "[unused668]": 673, "1923": 4927, "##fires": 26332, "napoli": 29485, "moments": 5312, "ground": 2598, "##ddled": 28090, "negotiating": 18875, "caste": 14542, "dual": 7037, "##standing": 24911, "##wl": 13668, "preview": 19236, "rahman": 14364, "illustrates": 24899, "arrangement": 6512, "felix": 8383, "[unused215]": 220, "##\u2295": 30139, "long": 2146, "potion": 26722, "sarcastic": 22473, "##vis": 11365, "hampshire": 7035, "[unused120]": 125, "diplomats": 23473, "christophe": 23978, "##\u30eb": 30259, "[unused140]": 145, "dynamics": 10949, "vale": 10380, "eps": 20383, "##nin": 11483, "coco": 25033, "trans": 9099, "orderly": 23589, "conflicting": 19326, "##swell": 19228, "##firmed": 23141, "dunedin": 22020, "rescues": 26001, "unexpectedly": 14153, "walked": 2939, "supposedly": 10743, "turtles": 16489, "lori": 18669, "includes": 2950, "benefit": 5770, "cakes": 22619, "##wind": 11101, "blu": 14154, "##ello": 15350, "alphabet": 12440, "##dents": 28986, "##ographer": 26145, "acquitted": 18538, "asia": 4021, "hop": 6154, "fracture": 19583, "##te": 2618, "kyiv": 25669, "albanians": 25267, "confesses": 22826, "lan": 17595, "precursor": 14988, "##\u2261": 30134, "professions": 22797, "hamas": 22129, "relinquished": 26566, "senegal": 16028, "wheel": 5217, "244": 24194, "rolf": 23381, "##\u516c": 30298, "superhuman": 27061, "plans": 3488, "af": 21358, "jong": 18528, "phi": 13569, "wishing": 10261, "##nz": 14191, "bamboo": 15216, "priory": 14284, "attire": 20426, "commandos": 25144, "duncan": 7343, "competitive": 6975, "necks": 26082, "##nting": 24360, "##\u4e8b": 30277, "##mb": 14905, "ticking": 28561, "[unused288]": 293, "succeed": 9510, "midday": 22878, "voyager": 23493, "andhra": 14065, "##position": 26994, "##aw": 10376, "optimism": 27451, "imperialism": 28087, "##lore": 20186, "##ction": 7542, "huh": 9616, "##hope": 26441, "benny": 11945, "casualties": 8664, "##writer": 15994, "lest": 26693, "[unused597]": 602, "tackled": 26176, "##ming": 6562, "##sr": 21338, "##\u6c38": 30422, "leased": 12019, "wilcox": 23926, "[unused366]": 371, "benson": 11999, "heat": 3684, "liner": 11197, "\u10e3": 1454, "rook": 28620, "##\u05e4": 29807, "frigate": 15437, "vomiting": 24780, "weary": 16040, "zhang": 9327, "##\u2208": 30124, "posted": 6866, "chaplain": 14011, "raul": 16720, "strain": 10178, "housing": 3847, "fusiliers": 27207, "provinces": 6941, "dissatisfaction": 28237, "francis": 4557, "muhammad": 7187, "1774": 17593, "allocation": 16169, "centrally": 25497, "domestically": 27143, "pius": 14363, "sermon": 18408, "cocoa": 22940, "\u00a3100": 27708, "##osition": 19234, "baylor": 23950, "belgium": 5706, "ivory": 11554, "\u0925": 1324, "betray": 20895, "fired": 5045, "thomas": 2726, "131": 14677, "essential": 6827, "dominican": 10104, "irrational": 23179, "aircraft": 2948, "dat": 23755, "downs": 12482, "brigham": 22727, "##ghton": 21763, "eyre": 26975, "numb": 15903, "boy": 2879, "chet": 25157, "cmll": 25395, "researcher": 10753, "reigns": 23481, "automatic": 6882, "resign": 12897, "starbucks": 29500, "superiors": 22983, "paul": 2703, "spilled": 13439, "waterford": 17769, "##vington": 21827, "##kot": 23342, "pounding": 9836, "dangers": 16796, "243": 22884, "sack": 12803, "##rito": 28414, "bloom": 13426, "jeans": 6312, "##tham": 22536, "##bah": 24206, "##\u3092": 30216, "##wehr": 27156, "reins": 19222, "ol": 19330, "yoo": 26823, "##athlon": 17563, "187": 19446, "base": 2918, "gotham": 22814, "compartments": 27998, "permitted": 7936, "pendulum": 28300, "halifax": 10475, "target": 4539, "##phy": 21281, "belarusian": 15626, "flower": 6546, "dunes": 17746, "location": 3295, "crore": 21665, "knockout": 11369, "cafe": 7668, "sniff": 27907, "[unused930]": 935, "merritt": 26701, "pending": 14223, "rails": 15168, "rare": 4678, "cynical": 26881, "##eur": 11236, "el": 3449, "147": 16471, "collaborate": 20880, "##lation": 13490, "##nna": 9516, "continental": 6803, "##lese": 24527, "##phi": 21850, "guise": 21980, "##anum": 27975, "##md": 26876, "enhance": 11598, "##wes": 18192, "\u516b": 1771, "replaced": 2999, "ua": 25423, "##post": 19894, "##zzle": 17644, "striped": 17983, "##ling": 2989, "targets": 7889, "quaker": 18844, "##ische": 13719, "abolition": 15766, "hits": 4978, "waist": 5808, "alaska": 7397, "cullen": 19925, "wasps": 23146, "delicately": 28814, "monarch": 11590, "##mc": 12458, "blink": 12373, "producing": 5155, "rouge": 12801, "##recht": 28109, "55th": 29075, "ct": 14931, "\u30d8": 1721, "indian": 2796, "1755": 21417, "##cation": 10719, "##rera": 24068, "penal": 18476, "##ruck": 29314, "begins": 4269, "layers": 9014, "##dre": 16200, "avalanche": 18846, "##quette": 29416, "nuremberg": 19346, "italianate": 25302, "martins": 19953, "##ns": 3619, "se": 7367, "wedding": 5030, "faster": 5514, "wyoming": 10622, "jeanne": 14537, "hartman": 26766, "international": 2248, "explode": 15044, "##quin": 12519, "b1": 29491, "glenn": 9465, "flattened": 16379, "missiles": 10815, "##gau": 20420, "zen": 16729, "\u300c": 1641, "argyle": 26503, "knives": 13227, "gallery": 3916, "fallout": 23902, "1741": 25280, "##fight": 20450, "##\u2080": 17110, "nervous": 6091, "##nos": 15460, "starter": 11753, "lane": 4644, "joke": 8257, "aix": 28443, "address": 4769, "\u09ad": 1369, "##\u1102": 29992, "marne": 25823, "puppets": 26101, "regulated": 12222, "heights": 7535, "outright": 13848, "##ays": 22916, "##nostic": 28199, "##yd": 25688, "##ytic": 21252, "fatally": 26292, "vp": 21210, "##ode": 10244, "buttons": 11287, "fernando": 9158, "##sson": 7092, "\u0630": 1279, "como": 18609, "reddish": 14182, "71": 6390, "278": 24709, "inspecting": 29508, "manifestation": 24491, "ops": 23092, "titanium": 23431, "raked": 22438, "frost": 10097, "oracle": 14721, "##systems": 29390, "maori": 12600, "strength": 3997, "follows": 4076, "discuss": 6848, "communist": 4750, "logging": 15899, "lesbian": 11690, "ni": 9152, "##oise": 23565, "barnsley": 25139, "seventh": 5066, "cavendish": 23570, "86": 6564, "barony": 19365, "lined": 7732, "humiliating": 28284, "lucky": 5341, "magical": 8687, "seek": 6148, "stake": 8406, "##\u702c": 30431, "ensign": 19890, "fraternity": 13577, "##ban": 8193, "multiplication": 24856, "france": 2605, "1904": 5692, "hawthorne": 23440, "buffalo": 6901, "tomorrow": 4826, "screams": 11652, "chord": 13924, "anarchist": 18448, "1984": 3118, "\u5b50": 1816, "5": 1019, "limbs": 10726, "basement": 8102, "manipulating": 26242, "sixteen": 7032, "\u0985": 1347, "jeremy": 7441, "##bha": 22655, "casino": 9270, "principle": 6958, "connell": 17199, "lookout": 19052, "charging": 13003, "leaf": 7053, "amp": 23713, "literacy": 8433, "1st": 3083, "marching": 10998, "mobilized": 27526, "slap": 14308, "occupation": 6139, "##ssler": 23385, "##zhou": 9791, "gazette": 11391, "ken": 6358, "ko": 12849, "excellent": 6581, "##fin": 16294, "##nam": 13129, "jointly": 10776, "assessment": 7667, "shooters": 28310, "bloc": 15984, "michelle": 9393, "admiration": 17005, "suspension": 8636, "[unused210]": 215, "hare": 14263, "ward": 4829, "gabled": 26182, "##ments": 8163, "colonists": 15526, "blackness": 19573, "potatoes": 14629, "struggling": 8084, "\u05e5": 1262, "phones": 11640, "nightingale": 21771, "ridges": 16386, "tal": 21368, "mineral": 9754, "newmarket": 22489, "1985": 3106, "##rella": 21835, "suffered": 4265, "ju": 18414, "booster": 23715, "##ulsive": 23004, "kenya": 7938, "##boats": 19468, "mimi": 20705, "##art": 8445, "##enberg": 11029, "##\u5948": 30340, "iphone": 18059, "spherical": 18970, "trained": 4738, "pines": 17527, "thailand": 6504, "bayer": 26367, "straining": 21366, "heavily": 4600, "constitute": 12346, "##dine": 10672, "bangor": 21895, "heightened": 21106, "institutions": 4896, "traps": 16735, "warner": 6654, "hundreds": 5606, "symbol": 6454, "##tablished": 28146, "334": 29562, "continue": 3613, "interfaces": 19706, "tradition": 4535, "##washed": 27283, "ep": 4958, "##uez": 29488, "##heart": 22375, "[unused505]": 510, "floated": 13715, "almeida": 29555, "strangers": 12358, "certified": 7378, "cords": 24551, "cat": 4937, "ridley": 20608, "stud": 16054, "##ume": 17897, "##\u266d": 24102, "smashing": 21105, "unbeaten": 20458, "battalions": 10157, "referendum": 9782, "gains": 12154, "\u062c": 1275, "fearless": 22518, "##hyl": 29598, "balancing": 20120, "banker": 13448, "##trip": 24901, "##ager": 17325, "weekday": 16904, "##just": 29427, "##rdes": 26371, "exposition": 13080, "sigma": 13201, "hesitate": 16390, "wan": 14071, "watt": 15231, "desires": 14714, "introducing": 10449, "variants": 10176, "under": 2104, "khalifa": 27925, "hansen": 13328, "##\u0965": 29881, "##dm": 22117, "examines": 20798, "cartoonist": 19659, "tinged": 22683, "victorious": 13846, "privatization": 23966, "andy": 5557, "##off": 7245, "cosmic": 14448, "##hony": 27629, "residences": 14094, "stripping": 23987, "'": 1005, "bjp": 24954, "curve": 7774, "##tlan": 28922, "khyber": 28416, "recordings": 5633, "shapes": 10466, "historically": 7145, "marianne": 19887, "misconduct": 23337, "\u1d9c": 1511, "brno": 28634, "finished": 2736, "##\u3088": 30210, "alzheimer": 21901, "greeks": 13176, "240": 11212, "footing": 22849, "heartland": 27399, "can": 2064, "capsule": 18269, "copying": 24731, "##bei": 19205, "##smo": 25855, "pow": 23776, "bishop": 3387, "eleventh": 11911, "parchment": 22433, "circa": 12800, "allison": 10786, "drops": 9010, "ferrara": 28635, "ist": 21541, "prayers": 12583, "chopper": 28057, "arthritis": 27641, "##sta": 9153, "interested": 4699, "##vie": 13469, "elise": 14251, "1940": 3878, "##bury": 4917, "commodity": 19502, "\u10d3": 1441, "##taka": 28412, "flirt": 27978, "associated": 3378, "##\u092c": 29865, "salsa": 26509, "structure": 3252, "intensely": 20531, "1949": 4085, "choosing": 10549, "exiting": 22371, "constitution": 4552, "butte": 25024, "lux": 28359, "hidden": 5023, "alien": 7344, "warnings": 16234, "stockings": 26412, "1943": 3826, "grass": 5568, "competing": 6637, "marvel": 8348, "[unused74]": 75, "scheduled": 5115, "widely": 4235, "cape": 4880, "##\u0921": 29857, "bessie": 29298, "mills": 6341, "##ulates": 18969, "inca": 27523, "##bad": 9024, "amazing": 6429, "##win": 10105, "##hui": 20552, "directs": 23303, "stirling": 15597, "virgil": 17270, "according": 2429, "##ique": 7413, "sacrifice": 8688, "feud": 13552, "2017": 2418, "235": 17825, "##ivo": 20984, "mendoza": 18021, "[unused698]": 703, "\u2660": 1623, "money": 2769, "woodward": 19133, "##ak": 4817, "scientific": 4045, "##\u092e": 29867, "##zak": 20685, "socialist": 6102, "moderate": 8777, "##oning": 13369, "ancestral": 14947, "affirmed": 19768, "##\uff01": 30512, "boar": 24187, "bullets": 10432, "torch": 12723, "receivers": 19278, "cornice": 27848, "theorem": 9872, "1778": 16331, "simplified": 11038, "galley": 27124, "parliament": 3323, "histories": 15215, "gallantry": 22111, "##\u094b": 29879, "check": 4638, "say": 2360, "28": 2654, "satisfactory": 23045, "unharmed": 28150, "vargas": 20556, "bells": 10118, "[unused866]": 871, "usb": 18833, "##nac": 18357, "nik": 23205, "pointless": 23100, "[unused601]": 606, "specimen": 11375, "##bio": 26282, "space": 2686, "secure": 5851, "##boro": 12691, "garnered": 13056, "wee": 16776, "lobes": 24423, "pits": 14496, "lazarus": 23623, "##ually": 28488, "proctor": 28770, "\u0268": 1118, "hatfield": 26853, "sands": 13457, "guided": 8546, "surely": 7543, "[unused328]": 333, "teacher": 3836, "02": 6185, "tipperary": 17333, "gallant": 26984, "klan": 26613, "\u209a": 1569, "##yi": 10139, "##gpur": 25758, "##werk": 29548, "##zoo": 23221, "warrington": 23051, "bray": 19743, "translating": 22969, "hz": 22100, "119": 13285, "titular": 12960, "##meric": 25531, "pottery": 11378, "norman": 5879, "stairway": 21952, "veto": 22102, "marijuana": 16204, "drowning": 14759, "bassett": 28303, "hesitation": 13431, "disorder": 8761, "##tula": 28970, "sling": 27076, "sports": 2998, "##ckey": 29183, "business": 2449, "dots": 14981, "litres": 25783, "sanitation": 18723, "##ted": 3064, "\u0629": 1272, "afghan": 12632, "500": 3156, "celebrity": 8958, "680": 23944, "adrenaline": 14963, "explaining": 9990, "##orth": 28610, "ins": 16021, "designer": 5859, "erich": 17513, "successors": 18530, "mythological": 21637, "crowns": 24364, "textiles": 18762, "disease": 4295, "footage": 8333, "##dak": 23597, "amongst": 5921, "##ouin": 25058, "pasta": 24857, "witness": 7409, "https": 16770, "zeppelin": 22116, "##kowski": 15449, "\u00df": 1096, "commentaries": 21241, "paddington": 26318, "lifeboat": 23450, "swelling": 18348, "millennia": 27620, "dentistry": 26556, "\u00bc": 1091, "excuse": 8016, "european": 2647, "willoughby": 24919, "16": 2385, "reassure": 24647, "bookstore": 21785, "designs": 5617, "northampton": 15944, "berger": 16758, "sq": 5490, "worlds": 8484, "##making": 12614, "muslim": 5152, "nero": 19212, "buckley": 17898, "wholesale": 17264, "##mony": 22847, "confederate": 8055, "pulitzer": 17618, "birth": 4182, "semifinal": 16797, "162": 17832, "25": 2423, "[unused821]": 826, "vr": 27830, "##dio": 20617, "60s": 20341, "ignores": 26663, "philip": 5170, "educator": 11490, "marek": 29318, "outline": 12685, "watery": 28259, "punk": 7196, "jacobs": 12988, "##rac": 22648, "akin": 17793, "pages": 5530, "practical": 6742, "saddle": 12279, "kilometer": 20595, "spur": 12996, "chandler": 13814, "##amps": 25167, "blow": 6271, "##\u5c07": 30354, "macdonald": 10406, "eligibility": 11395, "poverty": 5635, "spy": 8645, "1715": 22606, "oils": 20631, "##ning": 5582, "weapon": 5195, "different": 2367, "gates": 6733, "commentator": 12268, "connectivity": 20831, "[unused947]": 952, "buck": 10131, "student": 3076, "populated": 10357, "[unused918]": 923, "nightmare": 10103, "\u671d": 1874, "lds": 17627, "vicente": 17280, "284": 26871, "[unused16]": 17, "##vy": 10736, "core": 4563, "1997": 2722, "##cic": 19053, "cheap": 10036, "erected": 7019, "##band": 12733, "km\u00b2": 3186, "rods": 19485, "speechless": 25146, "wren": 16255, "coleman": 11608, "naval": 3987, "works": 2573, "orgasm": 13892, "1993": 2857, "imperfect": 29238, "colleen": 28385, "jenkins": 11098, "divorced": 9196, "##heim": 8049, "\u5fc3": 1849, "accolades": 27447, "[unused931]": 936, "cuff": 26450, "heath": 9895, "pieter": 23759, "fcc": 14420, "tropical": 5133, "federally": 20892, "239": 23688, "colt": 9110, "horribly": 27762, "criteria": 9181, "scented": 25738, "spoiled": 19582, "##ovo": 16059, "sigismund": 26748, "confessed": 14312, "occurred": 4158, "honneur": 28197, "selection": 4989, "differs": 12980, "mercenaries": 19331, "sutherland": 14274, "complex": 3375, "##lines": 12735, "##zier": 21548, "fa": 6904, "groans": 27778, "[unused778]": 783, "##ston": 7106, "airing": 10499, "market": 3006, "##ffi": 26989, "##tlement": 24007, "forbade": 27315, "premiered": 5885, "sake": 8739, "viewpoint": 21386, "electorate": 13694, "\u06af": 1305, "##ucible": 21104, "challenging": 10368, "flame": 8457, "patterson": 12424, "recalling": 21195, "fluid": 8331, "formally": 6246, "tied": 5079, "##tion": 3508, "witnessing": 24740, "mata": 22640, "\u11bc": 1489, "derivatives": 16942, "rugby": 4043, "reacted": 14831, "doubled": 11515, "peacock": 18931, "##oids": 17086, "##e": 2063, "identities": 15702, "interred": 13917, "aero": 18440, "##bber": 29325, "delicious": 12090, "warming": 12959, "yukon": 19898, "##iating": 15370, "dunkirk": 29467, "\u0639": 1288, "355": 26271, "##mith": 19864, "barrage": 19359, "murderous": 25303, "tugged": 10621, "1900": 5141, "rub": 14548, "defeating": 6324, "forts": 15421, "##nic": 8713, "##ement": 13665, "beetles": 14538, "generating": 11717, "mug": 14757, "yeshiva": 22142, "small": 2235, "study": 2817, "sweater": 14329, "potentially": 9280, "##\u5f8c": 30372, "transfers": 15210, "canyon": 8399, "feast": 9831, "clergyman": 22232, "ole": 15589, "gloucestershire": 15905, "secret": 3595, "cutler": 24975, "refrigerator": 18097, "popping": 20095, "clapping": 27104, "laurence": 10883, "blew": 8682, "luckily": 15798, "nelson": 5912, "##ters": 7747, "enhancing": 20226, "##itated": 15198, "neighbours": 14754, "positive": 3893, "producer": 3135, "safeguard": 28805, "kimball": 26659, "securities": 12012, "##cel": 29109, "morse": 17107, "##iser": 17288, "[unused309]": 314, "earnest": 17300, "##birds": 12887, "carved": 7844, "he": 2002, "powerful": 3928, "science": 2671, "cheers": 21250, "courage": 8424, "[unused207]": 212, "##izing": 6026, "lung": 11192, "##tera": 14621, "debts": 13930, "[unused233]": 238, "guyana": 18786, "northwestern": 7855, "overcame": 26463, "suppression": 16341, "\u02be": 1147, "\u30de": 1723, "##inates": 28184, "facades": 28708, "zipper": 22082, "1769": 20663, "whispering": 13550, "sparked": 13977, "##eka": 19025, "determines": 16463, "54": 5139, "integrated": 6377, "puck": 22900, "manipulate": 17708, "jeremiah": 17526, "##\u7248": 30433, "##inus": 13429, "sustainable": 9084, "desk": 4624, "spelling": 11379, "struggles": 11785, "cruelty": 18186, "derry": 17455, "##il": 4014, "peterborough": 17587, "dolls": 14421, "##icus": 14239, "soloists": 27516, "philips": 19087, "banking": 8169, "##bir": 17706, "##nx": 26807, "##ksha": 28132, "trial": 3979, "starr": 14330, "ava": 10927, "##bolt": 22803, "mon": 12256, "72": 5824, "lordship": 20698, "##rdial": 25070, "196": 20035, "##oles": 29111, "1921": 4885, "while": 2096, "belinda": 24574, "updates": 14409, "ling": 17002, "ohio": 4058, "crusaders": 18831, "selma": 28112, "cuts": 7659, "quit": 8046, "\u3046": 1648, "porsche": 16099, "##rf": 12881, "conferences": 9281, "ottomans": 17774, "##tland": 19270, "diana": 8805, "##abi": 28518, "executives": 12706, "rum": 19379, "characters": 3494, "gap": 6578, "##\u05d0": 29788, "malone": 16321, "[unused61]": 62, "licenses": 15943, "physicist": 13702, "##olin": 18861, "jensen": 14857, "modernist": 19770, "delight": 12208, "##iable": 19210, "democratic": 3537, "heather": 9533, "led": 2419, "sensing": 13851, "stare": 6237, "meng": 27955, "steaming": 19986, "biographies": 22056, "##itis": 13706, "denis": 11064, "##ooping": 29046, "alt": 12456, "gandhi": 12338, "ncaa": 5803, "weasel": 29268, "foundations": 10100, "##zos": 28370, "##aries": 12086, "conceal": 19819, "\u098f": 1351, "waiting": 3403, "##masters": 27751, "##\u624c": 30385, "creature": 6492, "missy": 25019, "twitter": 10474, "showcased": 22443, "heating": 10808, "defender": 8291, "1847": 9176, "hooker": 17074, "substantial": 6937, "archival": 22796, "cornell": 10921, "meat": 6240, "manuscript": 8356, "excerpt": 28142, "##rgy": 22637, "completion": 6503, "lending": 18435, "mono": 18847, "##ipes": 28108, "consensus": 10465, "##iente": 25099, "hate": 5223, "ought": 11276, "##bson": 27355, "associate": 5482, "interfere": 15115, "tanya": 19956, "coaching": 7748, "affect": 7461, "krakow": 14576, "pancakes": 28470, "detected": 11156, "hugged": 10308, "\u5948": 1814, "button": 6462, "tq": 28816, "biomedical": 20906, "pulled": 2766, "##gical": 26715, "goalkeeper": 9653, "pursuit": 8463, "depths": 11143, "afterlife": 25115, "duplicate": 24473, "disturbances": 24535, "renovation": 10525, "stakeholders": 22859, "bull": 7087, "initial": 3988, "hoover": 17443, "##berman": 23991, "collecting": 9334, "rebecca": 9423, "90s": 17233, "claudius": 25017, "disappears": 17144, "##res": 6072, "flare": 17748, "##aur": 21159, "dakota": 7734, "sweeping": 12720, "assured": 8916, "holiday": 6209, "inspiring": 18988, "##hosis": 25229, "cw": 19296, "madman": 28441, "relationship": 3276, "302": 22060, "##old": 11614, "mayor": 3664, "niagara": 15473, "positioned": 10959, "supervising": 21238, "cargo": 6636, "tchaikovsky": 25900, "\u2096": 1565, "eireann": 29157, "confinement": 21551, "tertiary": 13553, "operative": 12160, "schemes": 11683, "nominate": 23388, "sheep": 8351, "berber": 27514, "collingwood": 20044, "\u0644": 1294, "##hes": 15689, "south": 2148, "cantor": 26519, "finnish": 6983, "lyric": 13677, "##\u5e7f": 30368, "##mise": 28732, "##ppy": 27659, "female": 2931, "northeast": 4794, "amount": 3815, "##ock": 7432, "goddess": 7804, "implicit": 24655, "##gist": 24063, "##bt": 19279, "##rable": 16670, "bros": 10243, "begging": 12858, "speculative": 23250, "##bler": 16213, "doubles": 7695, "ing": 13749, "[unused916]": 921, "barnes": 9957, "donors": 17843, "[unused124]": 129, "jimmie": 24671, "planting": 14685, "reactive": 22643, "thrusts": 25842, "footballers": 27784, "pensions": 22024, "##inkles": 28562, "watts": 11042, "134": 15170, "##metry": 24327, "ark": 15745, "fading": 14059, "necessarily": 9352, "wider": 7289, "ratio": 6463, "pencil": 14745, "ions": 15956, "##kaya": 20718, "relate": 14396, "##37": 24434, "blank": 8744, "\u4fdd": 1766, "##isen": 28992, "[unused159]": 164, "##\u2297": 30140, "corridors": 17506, "yeomanry": 26883, "equipped": 6055, "springs": 6076, "angle": 6466, "##going": 26966, "posse": 25751, "##cine": 16567, "##oot": 17206, "details": 4751, "1823": 12522, "introduces": 13999, "dignity": 13372, "ferdinand": 9684, "platt": 28005, "##sd": 16150, "##\u30e5": 30255, "\u30a2": 1693, "lauderdale": 23520, "cremated": 28376, "##ikh": 28209, "destroy": 6033, "##ija": 14713, "paralympic": 17029, "gutierrez": 20836, "##gur": 27390, "##\u2044\u2084": 27392, "afghanistan": 7041, "nodes": 14164, "experimentation": 21470, "separated": 5459, "speeds": 10898, "evacuation": 13982, "##broken": 29162, "gloss": 27068, "guitarists": 28523, "##otype": 26305, "significant": 3278, "scots": 12196, "##so": 6499, "youth": 3360, "##\uff09": 30514, "\u2605": 1620, "newfoundland": 11944, "unanimously": 15645, "##hs": 7898, "##cho": 9905, "##eric": 22420, "##nath": 16207, "##grin": 24860, "closed": 2701, "##unas": 23904, "buddhist": 7992, "volvo": 21074, "commanded": 6311, "timing": 10984, "ethan": 6066, "##nage": 27031, "[unused801]": 806, "##tler": 25091, "togo": 23588, "released": 2207, "bowman": 19298, "favorable": 11119, "marketplace": 18086, "##ede": 14728, "##lius": 15513, "humming": 20364, "##ined": 21280, "partisan": 14254, "clement": 12223, "hilbert": 27434, "tweed": 26922, "77": 6255, "occupants": 18837, "model": 2944, "granada": 16553, "mx": 25630, "##raz": 20409, "holland": 7935, "somme": 25158, "##bing": 10472, "blowing": 11221, "investigators": 14766, "psychotic": 27756, "##ien": 9013, "reign": 5853, "[unused172]": 177, "specialists": 15744, "vassal": 24351, "1786": 17436, "ebook": 26885, "cite": 21893, "index": 5950, "##rish": 18774, "rodney": 13898, "conspicuous": 19194, "services": 2578, "brady": 10184, "obey": 15470, "rust": 18399, "##tt": 4779, "haynes": 21805, "intervention": 8830, "##len": 7770, "world": 2088, "prizes": 11580, "arrows": 12563, "dormant": 22170, "vine": 15351, "horace": 12757, "flanking": 24958, "##\u2606": 30148, "acre": 7456, "clever": 12266, "equal": 5020, "loads": 15665, "mantra": 25951, "dizzy": 14849, "flinch": 23224, "##nk": 8950, "complaint": 12087, "puts": 8509, "##\u4e2d": 30272, "refuses": 10220, "synagogue": 13067, "##o": 2080, "\u05db": 1252, "scowl": 19981, "\u0561": 1219, "caressed": 21473, "shi": 11895, "guests": 6368, "rio": 5673, "grasping": 20854, "enterprise": 6960, "[unused158]": 163, "michelangelo": 27701, "cree": 27831, "[unused231]": 236, "cared": 8725, "gallagher": 17297, "smirked": 18775, "##rance": 21621, "cumulative": 23260, "emperors": 19655, "spacecraft": 12076, "diesel": 7937, "imaginative": 28575, "injected": 19737, "nouveau": 25272, "specialised": 17009, "44th": 26409, "speed": 3177, "thirties": 26313, "substance": 9415, "cod": 19429, "disciplines": 12736, "##fine": 23460, "quo": 22035, "##tai": 15444, "principles": 6481, "##ero": 10624, "wellesley": 25658, "##dden": 17101, "colombian": 13598, "designers": 11216, "##33": 22394, "lacked": 10858, "boulevard": 8459, "##rence": 24413, "hume": 20368, "consciousness": 8298, "##\u7592": 30439, "allmusic": 10477, "ledge": 18283, "storm": 4040, "boiled": 17020, "poorly": 9996, "sprang": 15627, "ukraine": 5924, "mask": 7308, "do": 2079, "sorority": 27600, "plainly": 24250, "##ech": 15937, "[unused163]": 168, "abruptly": 9225, "fowler": 14990, "depending": 5834, "lily": 7094, "strife": 27865, "bedroom": 5010, "##tooth": 19392, "accomplishment": 24718, "##riz": 21885, "knoxville": 20021, "revived": 10570, "duran": 22959, "##iner": 26455, "bus": 3902, "altered": 8776, "##eased": 25063, "morton": 11164, "screenplay": 9000, "asserted": 13647, "spoken": 5287, "activist": 7423, "lock": 5843, "residence": 5039, "[unused661]": 666, "##able": 3085, "##lum": 12942, "##una": 9521, "reported": 2988, "[unused465]": 470, "handles": 16024, "tapping": 15135, "bum": 26352, "##inging": 23180, "##zai": 25290, "drought": 14734, "budget": 5166, "26th": 14935, "discovers": 9418, "innovations": 15463, "1909": 5556, "evenings": 16241, "minus": 15718, "spat": 14690, "[unused881]": 886, "defective": 28829, "moth": 5820, "grasses": 21620, "nr": 17212, "maternal": 11062, "ada": 15262, "eruptions": 28448, "memorabilia": 28663, "benjamin": 6425, "warmly": 22775, "capital": 3007, "mirrored": 22243, "##kushima": 24917, "organising": 21317, "##\u4e0a": 30268, "##rate": 11657, "rwanda": 17591, "chemical": 5072, "er": 9413, "orphan": 18211, "siding": 17326, "chance": 3382, "bruce": 5503, "rooms": 4734, "teaser": 27071, "shock": 5213, "years": 2086, "vines": 16702, "##yr": 12541, "subtly": 28797, "hire": 10887, "bravery": 16534, "jerked": 8245, "##claim": 25154, "737": 22061, "deep": 2784, "erwin": 22209, "insisted": 7278, "telecommunications": 12108, "##13": 17134, "\u099b": 1357, "crystals": 14438, "reflex": 22259, "adventurer": 29506, "##isman": 20257, "##itung": 28813, "baghdad": 13952, "##suit": 28880, "##kha": 15256, "##cats": 19588, "##lley": 25105, "##\u02b2": 29707, "##\u5730": 30328, "auditor": 20964, "voltage": 10004, "wizards": 16657, "navy": 3212, "##ivision": 24607, "##\u2190": 30111, "carnival": 11485, "hopes": 8069, "clinch": 29119, "falcons": 14929, "flop": 28583, "1618": 29029, "scores": 7644, "resistant": 13070, "sibling": 22941, "##oshi": 24303, "lois": 15815, "fontaine": 25749, "valve": 10764, "[unused986]": 991, "condition": 4650, "##escu": 19434, "charge": 3715, "##comb": 18274, "##ffy": 16329, "announce": 14970, "residing": 7154, "wells": 7051, "##:": 29627, "alternative": 4522, "guillermo": 21070, "institutional": 12148, "mindanao": 23669, "civilian": 6831, "slice": 14704, "shaggy": 25741, "##dorf": 11592, "premier": 4239, "[unused573]": 578, "##\u2122": 30108, "refuge": 9277, "created": 2580, "##sop": 28793, "##hi": 4048, "voss": 24878, "breeds": 15910, "saturday": 5095, "plots": 14811, "story": 2466, "proceeds": 10951, "homer": 11525, "educating": 25088, "[unused269]": 274, "moves": 5829, "washington": 2899, "##ate": 3686, "##agi": 22974, "##enia": 19825, "radicals": 23618, "##bate": 20179, "crowd": 4306, "drones": 24633, "##\u0993": 29888, "##ctum": 27272, "laps": 10876, "layout": 9621, "plus": 4606, "garments": 21902, "##\u03bc": 29728, "intricate": 17796, "foreword": 23059, "##grade": 24170, "clyde": 12085, "closet": 9346, "runoff": 19550, "definitions": 15182, "weathered": 28445, "##man": 2386, "dominion": 13738, "mohammad": 12050, "slippery": 22274, "alsace": 24922, "amore": 26297, "runaway": 19050, "##eyer": 20211, "##dridge": 21482, "##nova": 13455,
[...]
